{
  "version": "1.0",
  "truncation": null,
  "padding": null,
  "added_tokens": [
    {
      "id": 0,
      "content": "[UNK]",
      "single_word": false,
      "lstrip": false,
      "rstrip": false,
      "normalized": false,
      "special": true
    },
    {
      "id": 1,
      "content": "[CLS]",
      "single_word": false,
      "lstrip": false,
      "rstrip": false,
      "normalized": false,
      "special": true
    },
    {
      "id": 2,
      "content": "[SEP]",
      "single_word": false,
      "lstrip": false,
      "rstrip": false,
      "normalized": false,
      "special": true
    },
    {
      "id": 3,
      "content": "[PAD]",
      "single_word": false,
      "lstrip": false,
      "rstrip": false,
      "normalized": false,
      "special": true
    },
    {
      "id": 4,
      "content": "[MASK]",
      "single_word": false,
      "lstrip": false,
      "rstrip": false,
      "normalized": false,
      "special": true
    }
  ],
  "normalizer": null,
  "pre_tokenizer": {
    "type": "Whitespace"
  },
  "post_processor": null,
  "decoder": null,
  "model": {
    "type": "WordPiece",
    "unk_token": "[UNK]",
    "continuing_subword_prefix": "##",
    "max_input_chars_per_word": 100,
    "vocab": {
      "[UNK]": 0,
      "[CLS]": 1,
      "[SEP]": 2,
      "[PAD]": 3,
      "[MASK]": 4,
      "\u0001": 5,
      ")": 6,
      "0": 7,
      "1": 8,
      "2": 9,
      "3": 10,
      "4": 11,
      "5": 12,
      "6": 13,
      "7": 14,
      "8": 15,
      "9": 16,
      ";": 17,
      "=": 18,
      "_": 19,
      "a": 20,
      "b": 21,
      "c": 22,
      "d": 23,
      "e": 24,
      "f": 25,
      "g": 26,
      "h": 27,
      "i": 28,
      "j": 29,
      "k": 30,
      "l": 31,
      "m": 32,
      "n": 33,
      "o": 34,
      "p": 35,
      "q": 36,
      "r": 37,
      "s": 38,
      "t": 39,
      "u": 40,
      "v": 41,
      "w": 42,
      "x": 43,
      "y": 44,
      "z": 45,
      "à": 46,
      "á": 47,
      "â": 48,
      "ã": 49,
      "è": 50,
      "é": 51,
      "ê": 52,
      "ì": 53,
      "í": 54,
      "ò": 55,
      "ó": 56,
      "ô": 57,
      "õ": 58,
      "ù": 59,
      "ú": 60,
      "ý": 61,
      "ă": 62,
      "đ": 63,
      "ĩ": 64,
      "ũ": 65,
      "ơ": 66,
      "ư": 67,
      "ạ": 68,
      "ả": 69,
      "ấ": 70,
      "ầ": 71,
      "ẩ": 72,
      "ẫ": 73,
      "ậ": 74,
      "ắ": 75,
      "ằ": 76,
      "ẳ": 77,
      "ẵ": 78,
      "ặ": 79,
      "ẹ": 80,
      "ẻ": 81,
      "ẽ": 82,
      "ế": 83,
      "ề": 84,
      "ể": 85,
      "ễ": 86,
      "ệ": 87,
      "ỉ": 88,
      "ị": 89,
      "ọ": 90,
      "ỏ": 91,
      "ố": 92,
      "ồ": 93,
      "ổ": 94,
      "ỗ": 95,
      "ộ": 96,
      "ớ": 97,
      "ờ": 98,
      "ở": 99,
      "ỡ": 100,
      "ợ": 101,
      "ụ": 102,
      "ủ": 103,
      "ứ": 104,
      "ừ": 105,
      "ử": 106,
      "ữ": 107,
      "ự": 108,
      "ỳ": 109,
      "ỷ": 110,
      "ỹ": 111,
      "–": 112,
      "…": 113,
      "﻿": 114,
      "##ô": 115,
      "##_": 116,
      "##p": 117,
      "##h": 118,
      "##ỏ": 119,
      "##n": 120,
      "##g": 121,
      "##ỷ": 122,
      "##i": 123,
      "##ệ": 124,
      "##m": 125,
      "##ý": 126,
      "##l": 127,
      "##ạ": 128,
      "##z": 129,
      "##j": 130,
      "##w": 131,
      "##3": 132,
      "##1": 133,
      "##2": 134,
      "##t": 135,
      "##u": 136,
      "##a": 137,
      "##á": 138,
      "##c": 139,
      "##ả": 140,
      "##k": 141,
      "##e": 142,
      "##y": 143,
      "##ó": 144,
      "##ế": 145,
      "##ự": 146,
      "##à": 147,
      "##õ": 148,
      "##f": 149,
      "##r": 150,
      "##o": 151,
      "##d": 152,
      "##ễ": 153,
      "##đ": 154,
      "##ể": 155,
      "##ù": 156,
      "##ộ": 157,
      "##ấ": 158,
      "##ứ": 159,
      "##ặ": 160,
      "##ầ": 161,
      "##ắ": 162,
      "##5": 163,
      "##q": 164,
      "##8": 165,
      "##7": 166,
      "##í": 167,
      "##ọ": 168,
      "##ê": 169,
      "##ậ": 170,
      "##ĩ": 171,
      "##6": 172,
      "##ơ": 173,
      "##ă": 174,
      "##s": 175,
      "##v": 176,
      "##ò": 177,
      "##b": 178,
      "##0": 179,
      "##4": 180,
      "##ổ": 181,
      "##ề": 182,
      "##ủ": 183,
      "##ị": 184,
      "##ư": 185,
      "##ụ": 186,
      "##â": 187,
      "##ồ": 188,
      "##ú": 189,
      "##ờ": 190,
      "##9": 191,
      "##ẳ": 192,
      "##ớ": 193,
      "##ẻ": 194,
      "##ẹ": 195,
      "##ỗ": 196,
      "##ữ": 197,
      "##x": 198,
      "##ở": 199,
      "##é": 200,
      "##ử": 201,
      "##ã": 202,
      "##ợ": 203,
      "##ỳ": 204,
      "##ì": 205,
      "##ố": 206,
      "##ừ": 207,
      "##è": 208,
      "##ẽ": 209,
      "##ỹ": 210,
      "##ỡ": 211,
      "##ẫ": 212,
      "##ũ": 213,
      "##ỉ": 214,
      "##ằ": 215,
      "##ẩ": 216,
      "##ẵ": 217,
      "##)": 218,
      "##ng": 219,
      "##_t": 220,
      "##nh": 221,
      "th": 222,
      "##ên": 223,
      "nh": 224,
      "gi": 225,
      "##_v": 226,
      "##iên": 227,
      "ch": 228,
      "##_viên": 229,
      "kh": 230,
      "giả": 231,
      "##iệ": 232,
      "giảng": 233,
      "##ầy": 234,
      "##_th": 235,
      "##ạy": 236,
      "##inh": 237,
      "##ình": 238,
      "##ài": 239,
      "thầy": 240,
      "##_h": 241,
      "##ọc": 242,
      "tr": 243,
      "##iế": 244,
      "##_d": 245,
      "sinh": 246,
      "##ông": 247,
      "sinh_viên": 248,
      "##ất": 249,
      "và": 250,
      "##_tình": 251,
      "bài": 252,
      "##_đ": 253,
      "dạy": 254,
      "##iể": 255,
      "không": 256,
      "##iệt": 257,
      "có": 258,
      "rất": 259,
      "##uy": 260,
      "nhiệt": 261,
      "##ác": 262,
      "##ều": 263,
      "học": 264,
      "nhiệt_tình": 265,
      "##iều": 266,
      "##iểu": 267,
      "ph": 268,
      "##_c": 269,
      "cho": 270,
      "##ực": 271,
      "##ập": 272,
      "hiểu": 273,
      "nhiều": 274,
      "giảng_viên": 275,
      "##ần": 276,
      "##_l": 277,
      "##ới": 278,
      "dễ": 279,
      "là": 280,
      "##ôn": 281,
      "thực": 282,
      "các": 283,
      "hơ": 284,
      "##_tập": 285,
      "##ượ": 286,
      "ng": 287,
      "##ận": 288,
      "qu": 289,
      "cô": 290,
      "##ức": 291,
      "##ay": 292,
      "##n_th": 293,
      "##ong": 294,
      "##_b": 295,
      "##âm": 296,
      "##_tr": 297,
      "##ành": 298,
      "nên": 299,
      "##_học": 300,
      "bài_tập": 301,
      "##ược": 302,
      "##_s": 303,
      "được": 304,
      "môn": 305,
      "tận": 306,
      "củ": 307,
      "hơn": 308,
      "##_dạy": 309,
      "của": 310,
      "giảng_dạy": 311,
      "##áo": 312,
      "với": 313,
      "##ết": 314,
      "##_g": 315,
      "hay": 316,
      "kiế": 317,
      "thực_h": 318,
      "##iết": 319,
      "##ớp": 320,
      "em": 321,
      "##n_thức": 322,
      "kiến_thức": 323,
      "thực_hành": 324,
      "##an": 325,
      "##ung": 326,
      "trong": 327,
      "##ời": 328,
      "##_tâm": 329,
      "cần": 330,
      "lớp": 331,
      "để": 332,
      "tố": 333,
      "làm": 334,
      "##n_đ": 335,
      "như": 336,
      "##_gi": 337,
      "##ưa": 338,
      "quá": 339,
      "tốt": 340,
      "##ạt": 341,
      "khó": 342,
      "##_k": 343,
      "##ướ": 344,
      "##ui": 345,
      "##uyết": 346,
      "##_m": 347,
      "vui": 348,
      "##ươ": 349,
      "môn_học": 350,
      "##ương": 351,
      "##_dụ": 352,
      "ngh": 353,
      "##ính": 354,
      "##ột": 355,
      "về": 356,
      "##iệu": 357,
      "##_n": 358,
      "##ẫn": 359,
      "chưa": 360,
      "một": 361,
      "##ững": 362,
      "##_ch": 363,
      "giáo": 364,
      "truy": 365,
      "##ch": 366,
      "truyề": 367,
      "##ườ": 368,
      "##ường": 369,
      "tiế": 370,
      "những": 371,
      "##_q": 372,
      "tận_tâm": 373,
      "##ăng": 374,
      "##òng": 375,
      "##ải": 376,
      "nó": 377,
      "##ắc": 378,
      "##ại": 379,
      "##n_đạt": 380,
      "giờ": 381,
      "##_qu": 382,
      "##ày": 383,
      "##ao": 384,
      "##áp": 385,
      "##_thể": 386,
      "truyền_đạt": 387,
      "cách": 388,
      "##_trình": 389,
      "##ổi": 390,
      "##_ng": 391,
      "giáo_viên": 392,
      "khi": 393,
      "##án": 394,
      "thời": 395,
      "##êm": 396,
      "##ộng": 397,
      "nói": 398,
      "##_nh": 399,
      "##ến": 400,
      "lên": 401,
      "##ướng": 402,
      "##ph": 403,
      "##úng": 404,
      "##iệc": 405,
      "##_ph": 406,
      "nhưng": 407,
      "nộ": 408,
      "##ích": 409,
      "##òn": 410,
      "##iểm": 411,
      "##_dẫn": 412,
      "##iện": 413,
      "giải": 414,
      "đến": 415,
      "##úp": 416,
      "chỉ": 417,
      "##_dụng": 418,
      "thực_t": 419,
      "giúp": 420,
      "còn": 421,
      "lý": 422,
      "##_gian": 423,
      "hướng": 424,
      "##ài_l": 425,
      "##de": 426,
      "thì": 427,
      "bu": 428,
      "##anh": 429,
      "thời_gian": 430,
      "##_dung": 431,
      "thêm": 432,
      "kỹ": 433,
      "cũ": 434,
      "##_thuyết": 435,
      "##ảm": 436,
      "trên": 437,
      "hơi": 438,
      "tận_tình": 439,
      "nội": 440,
      "##_kh": 441,
      "lý_thuyết": 442,
      "phòng": 443,
      "nội_dung": 444,
      "hướng_dẫn": 445,
      "##_tính": 446,
      "mà": 447,
      "phần": 448,
      "đồ": 449,
      "##li": 450,
      "##âu": 451,
      "vào": 452,
      "này": 453,
      "##ạo": 454,
      "##ấp": 455,
      "cũng": 456,
      "tiếp": 457,
      "##ối": 458,
      "má": 459,
      "rõ": 460,
      "##_x": 461,
      "##uyên": 462,
      "lại": 463,
      "##_năng": 464,
      "##_quả": 465,
      "máy": 466,
      "việc": 467,
      "##_ngh": 468,
      "##ấy": 469,
      "khá": 470,
      "##_sinh": 471,
      "ra": 472,
      "đi": 473,
      "ho": 474,
      "##ợp": 475,
      "##_vẻ": 476,
      "##_động": 477,
      "##ật": 478,
      "##ảo": 479,
      "học_sinh": 480,
      "đúng": 481,
      "buổi": 482,
      "đề": 483,
      "##úc": 484,
      "##ầu": 485,
      "nhanh": 486,
      "vui_vẻ": 487,
      "sử": 488,
      "##ang": 489,
      "##lide": 490,
      "nhà": 491,
      "điểm": 492,
      "##em": 493,
      "slide": 494,
      "##àng": 495,
      "tài_l": 496,
      "##ượng": 497,
      "hiệu": 498,
      "tài_liệu": 499,
      "##át": 500,
      "##ước": 501,
      "##_án": 502,
      "hiệu_quả": 503,
      "thực_tế": 504,
      "##au": 505,
      "##_pháp": 506,
      "từ": 507,
      "##ôi": 508,
      "##_cấp": 509,
      "##ữa": 510,
      "đầy": 511,
      "##_r": 512,
      "##_thu": 513,
      "có_thể": 514,
      "phải": 515,
      "ví": 516,
      "chi": 517,
      "##ọng": 518,
      "##ứng": 519,
      "ví_dụ": 520,
      "tâm": 521,
      "gì": 522,
      "ít": 523,
      "##_đủ": 524,
      "đầy_đủ": 525,
      "##uôn": 526,
      "phương": 527,
      "##ạn": 528,
      "##_bị": 529,
      "mới": 530,
      "thường": 531,
      "##eo": 532,
      "cao": 533,
      "##wz": 534,
      "##jwz": 535,
      "wz": 536,
      "wzjwz": 537,
      "##ỏi": 538,
      "##le": 539,
      "luôn": 540,
      "đồ_án": 541,
      "phương_pháp": 542,
      "##ắm": 543,
      "vui_tính": 544,
      "tạo": 545,
      "##ái": 546,
      "##ào": 547,
      "quan": 548,
      "tiếp_thu": 549,
      "thi": 550,
      "theo": 551,
      "co": 552,
      "học_tập": 553,
      "vì": 554,
      "do": 555,
      "##ây": 556,
      "nghe": 557,
      "anh": 558,
      "##ồi": 559,
      "##_lượng": 560,
      "##iếu": 561,
      "##ấn_đ": 562,
      "##_tiết": 563,
      "vấn_đ": 564,
      "vấn_đề": 565,
      "đó": 566,
      "cung": 567,
      "sự": 568,
      "##uyệ": 569,
      "cung_cấp": 570,
      "##_huyết": 571,
      "tiếng": 572,
      "cu": 573,
      "##in": 574,
      "công": 575,
      "thông": 576,
      "##iến": 577,
      "##_hợp": 578,
      "##êu": 579,
      "##ống": 580,
      "tính": 581,
      "##_lý": 582,
      "##ản": 583,
      "liên": 584,
      "mong": 585,
      "biết": 586,
      "khác": 587,
      "đã": 588,
      "trước": 589,
      "##_mắc": 590,
      "##ặc": 591,
      "sau": 592,
      "tiết": 593,
      "nghỉ": 594,
      "thắc": 595,
      "cảm": 596,
      "thắc_mắc": 597,
      "tự": 598,
      "##iễ": 599,
      "##àn": 600,
      "##ai": 601,
      "chi_tiết": 602,
      "kỳ": 603,
      "sử_dụng": 604,
      "quan_tâm": 605,
      "##út": 606,
      "##ảng": 607,
      "khả": 608,
      "##ách": 609,
      "##óm": 610,
      "gần": 611,
      "##ếu": 612,
      "##_bảo": 613,
      "##ân": 614,
      "khả_năng": 615,
      "sẽ": 616,
      "##ục": 617,
      "bạn": 618,
      "giải_đ": 619,
      "cụ": 620,
      "##ắt": 621,
      "hỏi": 622,
      "đưa": 623,
      "##_số": 624,
      "cụ_thể": 625,
      "##ạng": 626,
      "nhóm": 627,
      "giải_đáp": 628,
      "##ân_th": 629,
      "##ỗi": 630,
      "điều": 631,
      "đảm": 632,
      "##ười": 633,
      "chương": 634,
      "##_xuyên": 635,
      "thường_xuyên": 636,
      "##ằng": 637,
      "##_nghiệ": 638,
      "##uyện": 639,
      "đảm_bảo": 640,
      "chu": 641,
      "##âng": 642,
      "thấy": 643,
      "cuối": 644,
      "nâng": 645,
      "thân_th": 646,
      "##ùng": 647,
      "thân_thiện": 648,
      "##ăn": 649,
      "gây": 650,
      "áp": 651,
      "chất": 652,
      "##iết_bị": 653,
      "ngo": 654,
      "##iễn": 655,
      "rõ_r": 656,
      "rõ_ràng": 657,
      "chất_lượng": 658,
      "chương_trình": 659,
      "nắm": 660,
      "##ánh": 661,
      "##on": 662,
      "##_thức": 663,
      "thực_tiễn": 664,
      "người": 665,
      "cơ": 666,
      "##_đỡ": 667,
      "câu": 668,
      "bài_học": 669,
      "giúp_đỡ": 670,
      "nào": 671,
      "chuyên": 672,
      "tăng": 673,
      "kỹ_năng": 674,
      "phù": 675,
      "thay": 676,
      "cập": 677,
      "phù_hợp": 678,
      "##_quan": 679,
      "lúc": 680,
      "rồi": 681,
      "sát": 682,
      "nhất": 683,
      "trường": 684,
      "chúng": 685,
      "ngoài": 686,
      "hài_l": 687,
      "hài_lòng": 688,
      "##am": 689,
      "một_số": 690,
      "hoạt": 691,
      "tâm_huyết": 692,
      "##ot": 693,
      "cập_nh": 694,
      "tới": 695,
      "hình": 696,
      "hết": 697,
      "##ốn": 698,
      "##_bài": 699,
      "hoạt_động": 700,
      "##_việc": 701,
      "quá_trình": 702,
      "cập_nhật": 703,
      "##_em": 704,
      "tì": 705,
      "##_báo": 706,
      "đôi": 707,
      "thông_báo": 708,
      "tìm": 709,
      "bị": 710,
      "mình": 711,
      "cả": 712,
      "##ậy": 713,
      "tương": 714,
      "##_đổi": 715,
      "chúng_em": 716,
      "nếu": 717,
      "##dot": 718,
      "##ền": 719,
      "##ồn": 720,
      "trình": 721,
      "qua": 722,
      "mỗi": 723,
      "chủ": 724,
      "##_thú": 725,
      "báo": 726,
      "##ấm": 727,
      "trang": 728,
      "##_nghiệm": 729,
      "hứng": 730,
      "tập": 731,
      "##_cách": 732,
      "##_sự": 733,
      "giảng_bài": 734,
      "yêu": 735,
      "##ặt": 736,
      "đồng": 737,
      "hợp": 738,
      "đủ": 739,
      "##_độ": 740,
      "##ọn": 741,
      "##_trường": 742,
      "nghĩ": 743,
      "số": 744,
      "##ậm": 745,
      "chán": 746,
      "##_cầu": 747,
      "##_kỳ": 748,
      "sửa": 749,
      "thu": 750,
      "giữa": 751,
      "đầu": 752,
      "tho": 753,
      "chấm": 754,
      "kết": 755,
      "trễ": 756,
      "##_ích": 757,
      "##ub": 758,
      "##_môn": 759,
      "từng": 760,
      "hợp_lý": 761,
      "cái": 762,
      "##ẩn": 763,
      "bổ": 764,
      "##oa": 765,
      "##_trợ": 766,
      "thoải": 767,
      "##_lực": 768,
      "##_kiến": 769,
      "##_mái": 770,
      "thoải_mái": 771,
      "##_tác": 772,
      "##_lớp": 773,
      "đều": 774,
      "##ịch": 775,
      "##ũi": 776,
      "thiết_bị": 777,
      "phân": 778,
      "##_gũi": 779,
      "buồn": 780,
      "hứng_thú": 781,
      "giáo_trình": 782,
      "gần_gũi": 783,
      "##uble": 784,
      "##lon": 785,
      "tụ": 786,
      "ý_kiến": 787,
      "đối": 788,
      "thật": 789,
      "áp_dụng": 790,
      "hỗ": 791,
      "##ịp": 792,
      "chuẩn": 793,
      "kinh": 794,
      "kiểm": 795,
      "##ệ_th": 796,
      "##_tạo": 797,
      "thiếu": 798,
      "##_tra": 799,
      "##_trung": 800,
      "##ubledot": 801,
      "tu": 802,
      "vẫn": 803,
      "thuyết": 804,
      "hỗ_trợ": 805,
      "kịp": 806,
      "##áng": 807,
      "##oàn": 808,
      "##ơi": 809,
      "đọc": 810,
      "thích": 811,
      "tập_trung": 812,
      "yêu_cầu": 813,
      "##ắng": 814,
      "##_bản": 815,
      "##_chiếu": 816,
      "doubledot": 817,
      "##uốn": 818,
      "##_tin": 819,
      "colon": 820,
      "bằng": 821,
      "##ọi": 822,
      "##_thích": 823,
      "hoặc": 824,
      "hình_thức": 825,
      "lắm": 826,
      "giao": 827,
      "chậm": 828,
      "kiểm_tra": 829,
      "máy_chiếu": 830,
      "##iền": 831,
      "##_trọng": 832,
      "lên_lớp": 833,
      "sâu": 834,
      "##_tiế": 835,
      "trả": 836,
      "tuần": 837,
      "##òa": 838,
      "nhiệt_huyết": 839,
      "##_lời": 840,
      "##_khi": 841,
      "nhà_trường": 842,
      "wzjwz1": 843,
      "kinh_nghiệm": 844,
      "trả_lời": 845,
      "la": 846,
      "##ặp": 847,
      "##ịnh": 848,
      "nhỏ": 849,
      "##ừa": 850,
      "wzjwz2": 851,
      "##ám": 852,
      "##_thương": 853,
      "##ơn": 854,
      "cải": 855,
      "đánh": 856,
      "##_với": 857,
      "##_hệ": 858,
      "code": 859,
      "hòa": 860,
      "xem": 861,
      "ôn": 862,
      "##_tiếp": 863,
      "hệ_th": 864,
      "mọi": 865,
      "đối_với": 866,
      "hệ_thống": 867,
      "vừa": 868,
      "lần": 869,
      "##_hút": 870,
      "##_ý": 871,
      "##ắn": 872,
      "liên_quan": 873,
      "tham": 874,
      "chính": 875,
      "bắt": 876,
      "so": 877,
      "đa": 878,
      "##_thi": 879,
      "##_thiết": 880,
      "phát": 881,
      "liên_hệ": 882,
      "đôi_khi": 883,
      "##ăm": 884,
      "giọng": 885,
      "khiến": 886,
      "tụi": 887,
      "##_hiểu": 888,
      "giải_thích": 889,
      "chia": 890,
      "thuyết_trình": 891,
      "dễ_thương": 892,
      "một_cách": 893,
      "tuy": 894,
      "##ộc": 895,
      "##_cáo": 896,
      "máy_tính": 897,
      "lập": 898,
      "báo_cáo": 899,
      "lịch": 900,
      "nữa": 901,
      "##ắp": 902,
      "##_vậy": 903,
      "##_bày": 904,
      "đề_thi": 905,
      "gặp": 906,
      "ké": 907,
      "làm_việc": 908,
      "trình_bày": 909,
      "##ất_c": 910,
      "cần_thiết": 911,
      "tìm_hiểu": 912,
      "##ép": 913,
      "nhau": 914,
      "không_thể": 915,
      "##_giá": 916,
      "khó_kh": 917,
      "thông_tin": 918,
      "khó_khăn": 919,
      "mở": 920,
      "tích": 921,
      "##ưở": 922,
      "chú": 923,
      "##_cực": 924,
      "##ưởng": 925,
      "nhàm": 926,
      "tương_tác": 927,
      "đánh_giá": 928,
      "lab": 929,
      "tích_cực": 930,
      "bảng": 931,
      "sai": 932,
      "##_thiện": 933,
      "##_nữa": 934,
      "tổ": 935,
      "viết": 936,
      "đáp": 937,
      "##ìn": 938,
      "hơn_nữa": 939,
      "lớp_học": 940,
      "đang": 941,
      "ngủ": 942,
      "lập_trình": 943,
      "ứng": 944,
      "thứ": 945,
      "nhìn": 946,
      "chỗ": 947,
      "mang": 948,
      "##iêm": 949,
      "##ea": 950,
      "ứng_dụng": 951,
      "dẫn": 952,
      "mạng": 953,
      "ngồi": 954,
      "cải_thiện": 955,
      "mất": 956,
      "văn": 957,
      "##eb": 958,
      "chứ": 959,
      "sinh_động": 960,
      "truyền": 961,
      "##ic": 962,
      "##te": 963,
      "##ềm": 964,
      "thu_hút": 965,
      "bù": 966,
      "##ro": 967,
      "##ịu": 968,
      "nghiêm": 969,
      "đề_c": 970,
      "chuẩn_bị": 971,
      "bên": 972,
      "trọng": 973,
      "như_vậy": 974,
      "##_giải": 975,
      "nâng_cấp": 976,
      "năm": 977,
      "##_ơn": 978,
      "thú": 979,
      "khoa": 980,
      "nói_ch": 981,
      "cơ_bản": 982,
      "bổ_ích": 983,
      "sắp": 984,
      "##iêu": 985,
      "##_thấy": 986,
      "học_kỳ": 987,
      "phong": 988,
      "mục": 989,
      "##ar": 990,
      "##ếp": 991,
      "trao": 992,
      "##_bắt": 993,
      "##_ngữ": 994,
      "##_nghị": 995,
      "cảm_thấy": 996,
      "nắm_bắt": 997,
      "thay_đổi": 998,
      "chủ_động": 999,
      "hiền": 1000,
      "##ộn": 1001,
      "##ẳng": 1002,
      "##_lại": 1003,
      "trọng_tâm": 1004,
      "hài": 1005,
      "tất_c": 1006,
      "##ne": 1007,
      "##ile": 1008,
      "##_sâu": 1009,
      "##_chất": 1010,
      "trao_đổi": 1011,
      "tất_cả": 1012,
      "vận": 1013,
      "##_vị": 1014,
      "##_đáo": 1015,
      "thực_sự": 1016,
      "ngày": 1017,
      "##_nhiên": 1018,
      "nộp": 1019,
      "##uyệt": 1020,
      "cực": 1021,
      "dùng": 1022,
      "hiện": 1023,
      "##_giáo": 1024,
      "##_kiện": 1025,
      "ôn_tập": 1026,
      "bỏ": 1027,
      "##ớn": 1028,
      "##_khí": 1029,
      "bám": 1030,
      "lấy": 1031,
      "muốn": 1032,
      "đặc": 1033,
      "##oán": 1034,
      "##_thiết_bị": 1035,
      "##_hứng": 1036,
      "chu_đáo": 1037,
      "bọn": 1038,
      "dài": 1039,
      "##_lu": 1040,
      "##_rộng": 1041,
      "công_việc": 1042,
      "trang_thiết_bị": 1043,
      "toàn": 1044,
      "tuyệt": 1045,
      "##_biệt": 1046,
      "##_này": 1047,
      "đề_nghị": 1048,
      "thật_sự": 1049,
      "giao_tiếp": 1050,
      "hài_h": 1051,
      "tại": 1052,
      "không_khí": 1053,
      "##_cường": 1054,
      "nóng": 1055,
      "điều_kiện": 1056,
      "##_nghiệp": 1057,
      "tăng_cường": 1058,
      "trang_bị": 1059,
      "rè": 1060,
      "sớ": 1061,
      "##ội": 1062,
      "##_vọng": 1063,
      "##_điểm": 1064,
      "##_giảng": 1065,
      "##_chỉ": 1066,
      "thú_vị": 1067,
      "vận_dụng": 1068,
      "sớm": 1069,
      "bao": 1070,
      "sáng": 1071,
      "tình": 1072,
      "##ạnh": 1073,
      "##_khảo": 1074,
      "hoàn": 1075,
      "chuyên_môn": 1076,
      "hài_hước": 1077,
      "##ứu": 1078,
      "##_tục": 1079,
      "tránh": 1080,
      "##_sở": 1081,
      "##ọa": 1082,
      "nhận": 1083,
      "giảm": 1084,
      "trực": 1085,
      "##_cận": 1086,
      "##_cứu": 1087,
      "##_ngủ": 1088,
      "tiếp_cận": 1089,
      "##_xếp": 1090,
      "cảm_ơn": 1091,
      "buồn_ngủ": 1092,
      "sắp_xếp": 1093,
      "##_luận": 1094,
      "xin": 1095,
      "thành": 1096,
      "##inh_h": 1097,
      "ngắn": 1098,
      "##_bằng": 1099,
      "##_mềm": 1100,
      "##_như": 1101,
      "áp_lực": 1102,
      "cơ_sở": 1103,
      "colons": 1104,
      "tham_khảo": 1105,
      "kém": 1106,
      "đề_cương": 1107,
      "hầu": 1108,
      "mặc": 1109,
      "năng": 1110,
      "tôi": 1111,
      "xong": 1112,
      "##_ứng": 1113,
      "##iê": 1114,
      "##ạch": 1115,
      "##ặng": 1116,
      "##_danh": 1117,
      "điểm_danh": 1118,
      "tiết_học": 1119,
      "gh": 1120,
      "nặng": 1121,
      "việt": 1122,
      "##oảng": 1123,
      "thế": 1124,
      "##iên_cứu": 1125,
      "dạy_học": 1126,
      "##_sẻ": 1127,
      "##line": 1128,
      "kết_quả": 1129,
      "lỗi": 1130,
      "vi": 1131,
      "đây": 1132,
      "##ac": 1133,
      "##ớt": 1134,
      "##_toán": 1135,
      "ngay": 1136,
      "nghiên_cứu": 1137,
      "##_nhất": 1138,
      "chia_sẻ": 1139,
      "lớn": 1140,
      "##ur": 1141,
      "##ấu": 1142,
      "##ét": 1143,
      "##_vì": 1144,
      "##_hình": 1145,
      "##_dù": 1146,
      "##_định": 1147,
      "##_luyện": 1148,
      "##_giác": 1149,
      "##iêng": 1150,
      "cố": 1151,
      "mờ": 1152,
      "##_nào": 1153,
      "phần_mềm": 1154,
      "quan_trọng": 1155,
      "ai": 1156,
      "vô": 1157,
      "##se": 1158,
      "##_hơi": 1159,
      "công_ngh": 1160,
      "sau_này": 1161,
      "cảm_hứng": 1162,
      "đầu_t": 1163,
      "_d": 1164,
      "hạn": 1165,
      "web": 1166,
      "đào": 1167,
      "##_toàn": 1168,
      "##_sát": 1169,
      "##emin": 1170,
      "thay_vì": 1171,
      "phân_b": 1172,
      "tuy_nhiên": 1173,
      "đáp_ứng": 1174,
      "##eminar": 1175,
      "bảo": 1176,
      "cùng": 1177,
      "dạng": 1178,
      "dea": 1179,
      "##mile": 1180,
      "##àn_th": 1181,
      "##dline": 1182,
      "##ẫu": 1183,
      "##_hội": 1184,
      "##_cùng": 1185,
      "dễ_d": 1186,
      "rèn": 1187,
      "dù": 1188,
      "kể": 1189,
      "sôi": 1190,
      "##ợi": 1191,
      "giỏi": 1192,
      "chép": 1193,
      "##_thế": 1194,
      "##_man": 1195,
      "công_bằng": 1196,
      "trình_độ": 1197,
      "đặc_biệt": 1198,
      "mặc_dù": 1199,
      "deadline": 1200,
      "dễ_dàng": 1201,
      "bộ": 1202,
      "rộng": 1203,
      "riêng": 1204,
      "sơ": 1205,
      "seminar": 1206,
      "vậy": 1207,
      "đạt": 1208,
      "##ặn": 1209,
      "##ầm": 1210,
      "##ửa": 1211,
      "thiết": 1212,
      "##_vời": 1213,
      "##an_man": 1214,
      "##_xác": 1215,
      "##_nghĩ": 1216,
      "##icro": 1217,
      "lan_man": 1218,
      "mu": 1219,
      "##en": 1220,
      "##_tích": 1221,
      "hoàn_th": 1222,
      "tâm_lý": 1223,
      "cảm_giác": 1224,
      "tuyệt_vời": 1225,
      "hoàn_toàn": 1226,
      "_dle": 1227,
      "mấy": 1228,
      "quy": 1229,
      "sao": 1230,
      "ngành": 1231,
      "khóa": 1232,
      "##_chức": 1233,
      "##ật_chất": 1234,
      "tổ_chức": 1235,
      "nói_chuyện": 1236,
      "đào_tạo": 1237,
      "dle": 1238,
      "luyện": 1239,
      "micro": 1240,
      "động": 1241,
      "định": 1242,
      "##_y": 1243,
      "##iệm": 1244,
      "##_đầu": 1245,
      "phút": 1246,
      "##_lúc": 1247,
      "##_sung": 1248,
      "##_chịu": 1249,
      "##ail": 1250,
      "đôi_lúc": 1251,
      "số_lượng": 1252,
      "mở_rộng": 1253,
      "chú_trọng": 1254,
      "cực_kỳ": 1255,
      "rèn_luyện": 1256,
      "mức": 1257,
      "vài": 1258,
      "##ừng": 1259,
      "giới": 1260,
      "chiếu": 1261,
      "##_thực": 1262,
      "##_càng": 1263,
      "##_chế": 1264,
      "bổ_sung": 1265,
      "up": 1266,
      "##ỏng": 1267,
      "##ửi": 1268,
      "thôi": 1269,
      "khoảng": 1270,
      "##_giờ": 1271,
      "##_quyết": 1272,
      "##_qua": 1273,
      "##_ra": 1274,
      "ghi": 1275,
      "20": 1276,
      "diễ": 1277,
      "hy": 1278,
      "hai": 1279,
      "lâu": 1280,
      "đổi": 1281,
      "##ng_c": 1282,
      "nhớ": 1283,
      "chung": 1284,
      "##_thời": 1285,
      "##_thiệu": 1286,
      "##_dạng": 1287,
      "thời_lượng": 1288,
      "giới_thiệu": 1289,
      "hy_vọng": 1290,
      "##_túc": 1291,
      "##_tượng": 1292,
      "chắc": 1293,
      "quạt": 1294,
      "thực_hiện": 1295,
      "##_ngành": 1296,
      "chuyên_ngành": 1297,
      "muộn": 1298,
      "bận": 1299,
      "cứ": 1300,
      "lo": 1301,
      "minh_h": 1302,
      "yếu": 1303,
      "thống": 1304,
      "##iển": 1305,
      "kỹ_càng": 1306,
      "##_xét": 1307,
      "đa_dạng": 1308,
      "hầu_như": 1309,
      "##_yếu": 1310,
      "minh_họa": 1311,
      "hấp": 1312,
      "đặt": 1313,
      "ảnh": 1314,
      "##ẹp": 1315,
      "##ẵn": 1316,
      "##_hướng": 1317,
      "chính_xác": 1318,
      "sáng_tạo": 1319,
      "##urse": 1320,
      "sẵn": 1321,
      "giảng_giải": 1322,
      "##_hồ": 1323,
      "giải_quyết": 1324,
      "wzjwz3": 1325,
      "hấp_dẫn": 1326,
      "hư": 1327,
      "mơ": 1328,
      "##rac": 1329,
      "##si": 1330,
      "##_vụ": 1331,
      "##_hỏi": 1332,
      "##_hưởng": 1333,
      "chỉ_dẫn": 1334,
      "course": 1335,
      "liên_tục": 1336,
      "kết_hợp": 1337,
      "nghiêm_túc": 1338,
      "phong_cách": 1339,
      "hạn_chế": 1340,
      "ảnh_hưởng": 1341,
      "cấu": 1342,
      "gửi": 1343,
      "sách": 1344,
      "##_âm": 1345,
      "##ạc": 1346,
      "##ti": 1347,
      "##ót": 1348,
      "thảo": 1349,
      "giống": 1350,
      "chữ": 1351,
      "##_do": 1352,
      "##ôn_ngữ": 1353,
      "##_bộ": 1354,
      "##_kỹ": 1355,
      "đi_sâu": 1356,
      "cuộc": 1357,
      "lượng": 1358,
      "mặt": 1359,
      "##ạm": 1360,
      "##óng": 1361,
      "##ởi": 1362,
      "chạy": 1363,
      "##_cô": 1364,
      "ngôn_ngữ": 1365,
      "##_gắng": 1366,
      "##_nổi": 1367,
      "cơ_hội": 1368,
      "chủ_yếu": 1369,
      "đầu_tư": 1370,
      "sôi_nổi": 1371,
      "hoàn_thành": 1372,
      "thống_nhất": 1373,
      "dành": 1374,
      "##óp": 1375,
      "##ữu": 1376,
      "khô": 1377,
      "##_hành": 1378,
      "quản": 1379,
      "tương_đ": 1380,
      "tổng": 1381,
      "colonsmile": 1382,
      "cố_gắng": 1383,
      "định_hướng": 1384,
      "mơ_hồ": 1385,
      "thảo_luận": 1386,
      "10": 1387,
      "dư": 1388,
      "dem": 1389,
      "hữu": 1390,
      "đăng": 1391,
      "##ing": 1392,
      "##er": 1393,
      "##óa": 1394,
      "##ựng": 1395,
      "##ưỡ": 1396,
      "chuyện": 1397,
      "##_sống": 1398,
      "tốn": 1399,
      "##_khắc": 1400,
      "phát_âm": 1401,
      "websi": 1402,
      "sơ_s": 1403,
      "##tion": 1404,
      "demo": 1405,
      "website": 1406,
      "30": 1407,
      "cộng": 1408,
      "tư": 1409,
      "vững": 1410,
      "##ấn": 1411,
      "##_tài": 1412,
      "##_tại": 1413,
      "##_tiêu": 1414,
      "chút": 1415,
      "giảng_hơi": 1416,
      "phục": 1417,
      "cô_giáo": 1418,
      "##_chán": 1419,
      "##_chút": 1420,
      "đề_tài": 1421,
      "##ame": 1422,
      "hiện_tại": 1423,
      "trực_tiếp": 1424,
      "công_nghệ": 1425,
      "động_lực": 1426,
      "hữu_ích": 1427,
      "bớt": 1428,
      "mẫu": 1429,
      "mail": 1430,
      "đông": 1431,
      "trò": 1432,
      "##_cảm": 1433,
      "##_gia": 1434,
      "##_nhân": 1435,
      "chuyên_sâu": 1436,
      "##raction": 1437,
      "cài": 1438,
      "hô": 1439,
      "lôi": 1440,
      "lắng": 1441,
      "nêu": 1442,
      "sức": 1443,
      "đứng": 1444,
      "đơn": 1445,
      "##ua": 1446,
      "##õi": 1447,
      "thái": 1448,
      "chẳng": 1449,
      "##iếm": 1450,
      "không_chỉ": 1451,
      "##_trạng": 1452,
      "như_thế": 1453,
      "nghề": 1454,
      "##_phần": 1455,
      "##_phục": 1456,
      "##_nghe": 1457,
      "diễn_đạt": 1458,
      "sơ_sài": 1459,
      "phục_vụ": 1460,
      "lắng_nghe": 1461,
      "thái_độ": 1462,
      "cá": 1463,
      "fraction": 1464,
      "lời": 1465,
      "nền": 1466,
      "to": 1467,
      "xu": 1468,
      "##it": 1469,
      "##òi": 1470,
      "chịu": 1471,
      "thầy_cô": 1472,
      "trách": 1473,
      "##_đề": 1474,
      "##_sót": 1475,
      "##_giản": 1476,
      "##_kẽ": 1477,
      "##_quát": 1478,
      "##_nhiệm": 1479,
      "##_xúc": 1480,
      "bắt_đầu": 1481,
      "đa_số": 1482,
      "chú_ý": 1483,
      "nhàm_chán": 1484,
      "nghiêm_khắc": 1485,
      "mục_tiêu": 1486,
      "trò_ch": 1487,
      "hôm": 1488,
      "kiểu": 1489,
      "đẹp": 1490,
      "##ia": 1491,
      "##oạn": 1492,
      "##ấc": 1493,
      "##ưu": 1494,
      "thương": 1495,
      "##_vài": 1496,
      "trừ": 1497,
      "trung": 1498,
      "##_công": 1499,
      "##_cuốn": 1500,
      "##_liệu": 1501,
      "##_biểu": 1502,
      "##_sao": 1503,
      "##_sàng": 1504,
      "một_vài": 1505,
      "cuốn": 1506,
      "ngoài_ra": 1507,
      "kéo": 1508,
      "sẵn_sàng": 1509,
      "tương_đối": 1510,
      "##ưỡng": 1511,
      "lôi_cuốn": 1512,
      "đơn_giản": 1513,
      "bụ": 1514,
      "game": 1515,
      "vật_chất": 1516,
      "xa": 1517,
      "đâu": 1518,
      "##_tiến": 1519,
      "##_đặt": 1520,
      "##_là": 1521,
      "##_trúc": 1522,
      "##_giấc": 1523,
      "một_chút": 1524,
      "giờ_giấc": 1525,
      "công_tác": 1526,
      "trường_hợp": 1527,
      "tụy": 1528,
      "tham_gia": 1529,
      "quản_lý": 1530,
      "dưới": 1531,
      "cá_nhân": 1532,
      "trách_nhiệm": 1533,
      "bàn": 1534,
      "cứng": 1535,
      "góp": 1536,
      "tí": 1537,
      "đừng": 1538,
      "##uộc": 1539,
      "##oại": 1540,
      "nhắc": 1541,
      "trở": 1542,
      "##_dõi": 1543,
      "##_lưỡng": 1544,
      "##_gọn": 1545,
      "##_nhiệt": 1546,
      "##_phú": 1547,
      "kỹ_lưỡng": 1548,
      "##_thuật": 1549,
      "theo_dõi": 1550,
      "nói_chung": 1551,
      "ngắn_gọn": 1552,
      "loa": 1553,
      "mô": 1554,
      "tệ": 1555,
      "tinh": 1556,
      "vắng": 1557,
      "đại": 1558,
      "ổn": 1559,
      "##ec": 1560,
      "##ựa": 1561,
      "giảng_kỹ": 1562,
      "##_thúc": 1563,
      "##uyến": 1564,
      "##ướt": 1565,
      "##_nay": 1566,
      "lý_do": 1567,
      "phong_phú": 1568,
      "bao_giờ": 1569,
      "vô_cùng": 1570,
      "phân_bổ": 1571,
      "bộ_môn": 1572,
      "##_nghĩa": 1573,
      "mức_độ": 1574,
      "bụi": 1575,
      "##_nhiệt_tình": 1576,
      "bất": 1577,
      "bước": 1578,
      "âm": 1579,
      "##sua": 1580,
      "nhờ": 1581,
      "##_thần": 1582,
      "##_đích": 1583,
      "ngữ": 1584,
      "nguyên": 1585,
      "##_buộc": 1586,
      "củng_c": 1587,
      "khó_tính": 1588,
      "##_mặt": 1589,
      "##_nhắc": 1590,
      "dot": 1591,
      "ngoại": 1592,
      "kết_thúc": 1593,
      "mục_đích": 1594,
      "##_chỉnh": 1595,
      "tình_trạng": 1596,
      "năng_động": 1597,
      "visua": 1598,
      "phân_bố": 1599,
      "courses": 1600,
      "trò_chơi": 1601,
      "tinh_thần": 1602,
      "visual": 1603,
      "cặn": 1604,
      "dịch": 1605,
      "lướt": 1606,
      "rằng": 1607,
      "sang": 1608,
      "##ển": 1609,
      "dễ_chịu": 1610,
      "##n_độ": 1611,
      "tiến_độ": 1612,
      "##deo": 1613,
      "cuối_cùng": 1614,
      "chủ_đề": 1615,
      "cải_tiến": 1616,
      "phát_tr": 1617,
      "khoa_học": 1618,
      "hiện_nay": 1619,
      "thiết_thực": 1620,
      "ngữ_pháp": 1621,
      "cặn_kẽ": 1622,
      "bản": 1623,
      "hi": 1624,
      "hề": 1625,
      "wi": 1626,
      "##c_độ": 1627,
      "##ữ_liệu": 1628,
      "##ãy": 1629,
      "##ằm": 1630,
      "##_tải": 1631,
      "nhập": 1632,
      "chọn": 1633,
      "khắc": 1634,
      "trẻ": 1635,
      "trùng": 1636,
      "phản": 1637,
      "##_lẽ": 1638,
      "tốc_độ": 1639,
      "xem_xét": 1640,
      "đáp_án": 1641,
      "video": 1642,
      "cuốn_hút": 1643,
      "góp_ý": 1644,
      "củng_cố": 1645,
      "phát_triển": 1646,
      "bả": 1647,
      "cấp": 1648,
      "song": 1649,
      "ồn": 1650,
      "##pea": 1651,
      "##to": 1652,
      "##uất": 1653,
      "##king": 1654,
      "##_tảng": 1655,
      "nhu": 1656,
      "thầy_giáo": 1657,
      "##_dài": 1658,
      "có_vẻ": 1659,
      "quý": 1660,
      "quên": 1661,
      "##_mở": 1662,
      "xem_lại": 1663,
      "trực_quan": 1664,
      "cuộc_sống": 1665,
      "nền_tảng": 1666,
      "căn": 1667,
      "danh": 1668,
      "họ": 1669,
      "lẫn": 1670,
      "tên": 1671,
      "xác": 1672,
      "đáng": 1673,
      "##óc": 1674,
      "##ênh": 1675,
      "##èm": 1676,
      "nhẹ": 1677,
      "khuyến": 1678,
      "##_thanh": 1679,
      "##_ho": 1680,
      "##_duy": 1681,
      "dễ_tính": 1682,
      "##n_thân": 1683,
      "##_sức": 1684,
      "kiến": 1685,
      "##_nhận": 1686,
      "##_phí": 1687,
      "##_khích": 1688,
      "tâm_nhiệt_tình": 1689,
      "doanh": 1690,
      "chấm_điểm": 1691,
      "lap": 1692,
      "lịch_học": 1693,
      "năng_lực": 1694,
      "cấu_trúc": 1695,
      "tư_duy": 1696,
      "bản_thân": 1697,
      "##peaking": 1698,
      "15": 1699,
      "cám": 1700,
      "lưu": 1701,
      "su": 1702,
      "xử": 1703,
      "xây": 1704,
      "##ạp": 1705,
      "##fi": 1706,
      "##ốt": 1707,
      "##_tưởng": 1708,
      "giấy": 1709,
      "giảng_đ": 1710,
      "có_lẽ": 1711,
      "##_cần": 1712,
      "##_còn": 1713,
      "##_lệ": 1714,
      "##_mà": 1715,
      "##_muốn": 1716,
      "##_nên": 1717,
      "##_chung": 1718,
      "##_chuyện": 1719,
      "##_chóng": 1720,
      "##_phạm": 1721,
      "chỉ_bảo": 1722,
      "mà_còn": 1723,
      "nhanh_chóng": 1724,
      "hình_dung": 1725,
      "truyền_cảm": 1726,
      "quy_định": 1727,
      "cứng_nhắc": 1728,
      "âm_thanh": 1729,
      "nhu_cầu": 1730,
      "khuyến_khích": 1731,
      "doanh_nghiệp": 1732,
      "căng": 1733,
      "ok": 1734,
      "rớt": 1735,
      "sư": 1736,
      "speaking": 1737,
      "##or": 1738,
      "##ve": 1739,
      "ché": 1740,
      "chuy": 1741,
      "##_thường": 1742,
      "##ông_tin": 1743,
      "##_kết": 1744,
      "##_mới": 1745,
      "cách_thức": 1746,
      "##_khó": 1747,
      "##_khan": 1748,
      "tiếp_tục": 1749,
      "tiếp_xúc": 1750,
      "mong_muốn": 1751,
      "đồng_thời": 1752,
      "phân_tích": 1753,
      "##ệ_thông_tin": 1754,
      "sâu_rộng": 1755,
      "đa_phần": 1756,
      "công_nghệ_thông_tin": 1757,
      "luyện_tập": 1758,
      "khô_khan": 1759,
      "xuống": 1760,
      "kéo_dài": 1761,
      "wifi": 1762,
      "##top": 1763,
      "căn_bản": 1764,
      "laptop": 1765,
      "xử_lý": 1766,
      "giảng_đường": 1767,
      "hỏng": 1768,
      "kèm": 1769,
      "môi": 1770,
      "nước": 1771,
      "sợ": 1772,
      "suy": 1773,
      "##ệt": 1774,
      "##ồng": 1775,
      "##_vật_chất": 1776,
      "##_hết": 1777,
      "##_hạn": 1778,
      "##_dựng": 1779,
      "học_hỏi": 1780,
      "nhiệt_tình_giảng": 1781,
      "##_lạc": 1782,
      "##ức_t": 1783,
      "##_bình": 1784,
      "##_trò": 1785,
      "tối": 1786,
      "##_ngo": 1787,
      "màn": 1788,
      "chuyên_nghiệp": 1789,
      "sai_sót": 1790,
      "##ter": 1791,
      "cơ_sở_vật_chất": 1792,
      "đăng_k": 1793,
      "tín": 1794,
      "khắc_phục": 1795,
      "xây_dựng": 1796,
      "sư_phạm": 1797,
      "môi_trường": 1798,
      "cạnh": 1799,
      "cởi": 1800,
      "dòng": 1801,
      "file": 1802,
      "mạch": 1803,
      "nửa": 1804,
      "pro": 1805,
      "tỉ": 1806,
      "ân": 1807,
      "đời": 1808,
      "điện": 1809,
      "đem": 1810,
      "##tu": 1811,
      "##u_tượng": 1812,
      "##es": 1813,
      "##ĩnh": 1814,
      "thử": 1815,
      "thưa": 1816,
      "thẳng": 1817,
      "nhằm": 1818,
      "chúc": 1819,
      "##_thẳng": 1820,
      "bài_toán": 1821,
      "##_lai": 1822,
      "##_biết": 1823,
      "tận_dụng": 1824,
      "##_gì": 1825,
      "khó_chịu": 1826,
      "##_kế": 1827,
      "##_chí": 1828,
      "nhưng_mà": 1829,
      "##_khe": 1830,
      "hướng_dẫn_giải": 1831,
      "điểm_số": 1832,
      "thông_qua": 1833,
      "khách": 1834,
      "tương_lai": 1835,
      "thuật": 1836,
      "kịp_thời": 1837,
      "bắt_buộc": 1838,
      "truyền_tải": 1839,
      "nhận_xét": 1840,
      "đổi_mới": 1841,
      "trừu_tượng": 1842,
      "chuyển": 1843,
      "đăng_ký": 1844,
      "cởi_mở": 1845,
      "ân_cần": 1846,
      "càng": 1847,
      "gợi": 1848,
      "họa": 1849,
      "mệt": 1850,
      "ý_nghĩa": 1851,
      "##lo": 1852,
      "##ad": 1853,
      "##ảy": 1854,
      "##ói": 1855,
      "##oạt": 1856,
      "##íu": 1857,
      "##ía": 1858,
      "##ốc": 1859,
      "tháng": 1860,
      "chờ": 1861,
      "chiều": 1862,
      "chăm": 1863,
      "trời": 1864,
      "phụ": 1865,
      "phức_t": 1866,
      "##_mẫu": 1867,
      "##_chữa": 1868,
      "con": 1869,
      "điều_chỉnh": 1870,
      "câu_chuyện": 1871,
      "sửa_chữa": 1872,
      "hầu_hết": 1873,
      "đầu_tiên": 1874,
      "thiết_kế": 1875,
      "200": 1876,
      "cài_đặt": 1877,
      "đứng_lớp": 1878,
      "đại_học": 1879,
      "##_hoạch": 1880,
      "khách_quan": 1881,
      "thuật_toán": 1882,
      "phức_tạp": 1883,
      "bình": 1884,
      "bất_c": 1885,
      "cửa": 1886,
      "dặn": 1887,
      "nổi": 1888,
      "tiền": 1889,
      "xinh": 1890,
      "độ": 1891,
      "##gic": 1892,
      "##io": 1893,
      "##30": 1894,
      "##ảnh": 1895,
      "##dio": 1896,
      "##ụ_động": 1897,
      "thụ_động": 1898,
      "nhầm": 1899,
      "##_loa": 1900,
      "ngu": 1901,
      "##_nhỏ": 1902,
      "##_nhở": 1903,
      "kỹ_thuật": 1904,
      "đóng": 1905,
      "##dotv": 1906,
      "đều_đ": 1907,
      "tình_hình": 1908,
      "colonsad": 1909,
      "khóa_biểu": 1910,
      "nghề_nghiệp": 1911,
      "căng_thẳng": 1912,
      "50": 1913,
      "ban": 1914,
      "dụ": 1915,
      "in": 1916,
      "lề": 1917,
      "lố": 1918,
      "nổ": 1919,
      "rút": 1920,
      "xã": 1921,
      "đỡ": 1922,
      "đòi": 1923,
      "##ode": 1924,
      "##oát": 1925,
      "chữa": 1926,
      "khảo": 1927,
      "##_thầy": 1928,
      "trưởng": 1929,
      "##_đa": 1930,
      "##_song": 1931,
      "##_sắc": 1932,
      "làm_sao": 1933,
      "##_kiếm": 1934,
      "##_nối": 1935,
      "##_chép": 1936,
      "##_chia": 1937,
      "##_nhàng": 1938,
      "##_xuất": 1939,
      "wzjwz8": 1940,
      "công_t": 1941,
      "tìm_kiếm": 1942,
      "phân_chia": 1943,
      "phát_h": 1944,
      "đề_cập": 1945,
      "##inh_hoạt": 1946,
      "201": 1947,
      "##ng_cụ": 1948,
      "logic": 1949,
      "cấu_hình": 1950,
      "như_thế_nào": 1951,
      "nhắc_nhở": 1952,
      "nhập_môn": 1953,
      "nhẹ_nhàng": 1954,
      "cám_ơn": 1955,
      "##_ngoài": 1956,
      "nguồn": 1957,
      "dụng_cụ": 1958,
      "bữa": 1959,
      "cười": 1960,
      "dự": 1961,
      "dữ_liệu": 1962,
      "gle": 1963,
      "hăng": 1964,
      "kênh": 1965,
      "lòng": 1966,
      "lắp": 1967,
      "lĩnh": 1968,
      "linh_hoạt": 1969,
      "minh": 1970,
      "mạnh": 1971,
      "tầm": 1972,
      "điệ": 1973,
      "đột": 1974,
      "đợi": 1975,
      "##_w": 1976,
      "##iềm": 1977,
      "##at": 1978,
      "##ãi": 1979,
      "##ỉnh": 1980,
      "khắt": 1981,
      "trục": 1982,
      "học_viên": 1983,
      "phổ": 1984,
      "##_cả": 1985,
      "##_trặc": 1986,
      "##_gh": 1987,
      "##_mạng": 1988,
      "##_nản": 1989,
      "##ắc_nghiệm": 1990,
      "nói_nhỏ": 1991,
      "##_nhiêu": 1992,
      "##_khóa": 1993,
      "khái": 1994,
      "##úc_tích": 1995,
      "chuột": 1996,
      "hết_m": 1997,
      "qua_loa": 1998,
      "kết_nối": 1999,
      "toàn_bộ": 2000,
      "thành_công": 2001,
      "sôi_động": 2002,
      "##_thực_hành": 2003,
      "tổng_quát": 2004,
      "trung_bình": 2005,
      "bản_chất": 2006,
      "song_song": 2007,
      "suy_nghĩ": 2008,
      "##tudio": 2009,
      "xã_hội": 2010,
      "đòi_hỏi": 2011,
      "khảo_sát": 2012,
      "công_ty": 2013,
      "khắt_khe": 2014,
      "trục_trặc": 2015,
      "_k": 2016,
      "di": 2017,
      "gọi": 2018,
      "hệ": 2019,
      "hiệ": 2020,
      "hàng": 2021,
      "hóa": 2022,
      "hãy": 2023,
      "h30": 2024,
      "ja": 2025,
      "kiên": 2026,
      "kích": 2027,
      "kêu": 2028,
      "kit": 2029,
      "linh": 2030,
      "tải": 2031,
      "tóm": 2032,
      "vựng": 2033,
      "xếp": 2034,
      "xảy": 2035,
      "##py": 2036,
      "##ỏe": 2037,
      "##í_nghiệm": 2038,
      "##va": 2039,
      "##ver": 2040,
      "##_tả": 2041,
      "thể": 2042,
      "thậm": 2043,
      "che": 2044,
      "chơi": 2045,
      "##_theo": 2046,
      "có_khi": 2047,
      "##_lạ": 2048,
      "##_lớn": 2049,
      "##n_thoại": 2050,
      "##_trị": 2051,
      "##_trì": 2052,
      "##_móc": 2053,
      "tiến": 2054,
      "tiếp_theo": 2055,
      "coi": 2056,
      "copy": 2057,
      "vì_vậy": 2058,
      "công_thức": 2059,
      "chán_nản": 2060,
      "colonlo": 2061,
      "phát_biểu": 2062,
      "##net": 2063,
      "bao_nhiêu": 2064,
      "wzjwz31": 2065,
      "##ect": 2066,
      "xác_định": 2067,
      "suốt": 2068,
      "nước_ngoài": 2069,
      "tối_đa": 2070,
      "bình_thường": 2071,
      "điện_thoại": 2072,
      "##_web": 2073,
      "java": 2074,
      "colonlove": 2075,
      "bởi": 2076,
      "cân": 2077,
      "dựa": 2078,
      "gò": 2079,
      "nơi": 2080,
      "niềm": 2081,
      "tác": 2082,
      "vdotv": 2083,
      "##_ảnh": 2084,
      "##har": 2085,
      "##tem": 2086,
      "##ut": 2087,
      "##do": 2088,
      "##ãng": 2089,
      "##ợt": 2090,
      "##_tự": 2091,
      "##_tắc": 2092,
      "##_tiện": 2093,
      "##_tòi": 2094,
      "##nh_s": 2095,
      "thỉnh": 2096,
      "##_vực": 2097,
      "##iên_bản": 2098,
      "chả": 2099,
      "khỏe": 2100,
      "##_thoảng": 2101,
      "##_hỏng": 2102,
      "trợ": 2103,
      "trắc_nghiệm": 2104,
      "có_ích": 2105,
      "phiên_bản": 2106,
      "##_cụ": 2107,
      "##_cố": 2108,
      "cho_ph": 2109,
      "hiểu_biết": 2110,
      "##_lòng": 2111,
      "##_luôn": 2112,
      "##_lợi": 2113,
      "quen": 2114,
      "làm_gì": 2115,
      "##n_đại": 2116,
      "##_mỉ": 2117,
      "##_minh": 2118,
      "##_mang": 2119,
      "##_chứng": 2120,
      "##_quen": 2121,
      "máy_móc": 2122,
      "phương_thức": 2123,
      "luôn_luôn": 2124,
      "tự_nhiên": 2125,
      "##àn_l": 2126,
      "hình_ảnh": 2127,
      "tìm_tòi": 2128,
      "đối_tượng": 2129,
      "bỏ_qua": 2130,
      "thành_viên": 2131,
      "thế_này": 2132,
      "kể_cả": 2133,
      "hoàn_thiện": 2134,
      "chung_chung": 2135,
      "loại": 2136,
      "hư_hỏng": 2137,
      "trở_nên": 2138,
      "ngoại_khóa": 2139,
      "hi_vọng": 2140,
      "tỉ_mỉ": 2141,
      "gợi_ý": 2142,
      "phát_huy": 2143,
      "lĩnh_vực": 2144,
      "hiện_đại": 2145,
      "kích_thích": 2146,
      "thậm_chí": 2147,
      "cho_phép": 2148,
      "duy": 2149,
      "dãy": 2150,
      "gắt": 2151,
      "gắn": 2152,
      "kế": 2153,
      "kia": 2154,
      "li": 2155,
      "rối": 2156,
      "ta": 2157,
      "tin": 2158,
      "tân": 2159,
      "win": 2160,
      "xíu": 2161,
      "ăn": 2162,
      "đoạn": 2163,
      "##con": 2164,
      "##ql": 2165,
      "##ậu": 2166,
      "##ste": 2167,
      "##ẩm": 2168,
      "##_tử": 2169,
      "giá": 2170,
      "trưa": 2171,
      "trải": 2172,
      "trau": 2173,
      "nhiệt_tình_tạo": 2174,
      "##_loại": 2175,
      "##_trai": 2176,
      "tận_t": 2177,
      "##_mẻ": 2178,
      "##_chắn": 2179,
      "truyền_th": 2180,
      "##_phòng": 2181,
      "việc_là": 2182,
      "##_rối": 2183,
      "wzjwz5": 2184,
      "wzjwz7": 2185,
      "wzjwz6": 2186,
      "wzjwz4": 2187,
      "wzjwz9": 2188,
      "công_cụ": 2189,
      "áp_đặt": 2190,
      "lúc_nào": 2191,
      "thuận": 2192,
      "wzjwz13": 2193,
      "wzjwz11": 2194,
      "wzjwz12": 2195,
      "wzjwz15": 2196,
      "wzjwz18": 2197,
      "wzjwz17": 2198,
      "wzjwz16": 2199,
      "wzjwz10": 2200,
      "wzjwz14": 2201,
      "wzjwz19": 2202,
      "wzjwz21": 2203,
      "wzjwz25": 2204,
      "wzjwz28": 2205,
      "wzjwz27": 2206,
      "wzjwz26": 2207,
      "wzjwz20": 2208,
      "wzjwz24": 2209,
      "wzjwz29": 2210,
      "ghi_chép": 2211,
      "chắc_chắn": 2212,
      "cộng_điểm": 2213,
      "đẹp_trai": 2214,
      "chém": 2215,
      "##ternet": 2216,
      "đời_sống": 2217,
      "internet": 2218,
      "##temn": 2219,
      "thỉnh_thoảng": 2220,
      "##contemn": 2221,
      "việc_làm": 2222,
      "biện": 2223,
      "cắm": 2224,
      "dậy": 2225,
      "fac": 2226,
      "gọn": 2227,
      "lười": 2228,
      "liền": 2229,
      "lặp": 2230,
      "lãng": 2231,
      "si": 2232,
      "sản": 2233,
      "studio": 2234,
      "wec": 2235,
      "ôn_th": 2236,
      "ý_tưởng": 2237,
      "đường": 2238,
      "##ject": 2239,
      "##ri": 2240,
      "##ru": 2241,
      "##os": 2242,
      "##smile": 2243,
      "##ẩy": 2244,
      "##_tế": 2245,
      "##_tí": 2246,
      "thư": 2247,
      "thiên": 2248,
      "thao": 2249,
      "thấp": 2250,
      "chê": 2251,
      "##_thù": 2252,
      "##_thành": 2253,
      "##_dồi": 2254,
      "##_dữ_liệu": 2255,
      "có_mặt": 2256,
      "học_môn": 2257,
      "học_trò": 2258,
      "##_lẫn": 2259,
      "##_lâu": 2260,
      "quả": 2261,
      "##_sổ": 2262,
      "kiếm": 2263,
      "##n_đàn": 2264,
      "##_mỏi": 2265,
      "##_mạch": 2266,
      "##_nề": 2267,
      "##_phải": 2268,
      "##_phẩm": 2269,
      "giải_tích": 2270,
      "##_khoa": 2271,
      "phần_nào": 2272,
      "phần_lớn": 2273,
      "##ang_mang": 2274,
      "tâm_giảng": 2275,
      "vì_thế": 2276,
      "sự_cố": 2277,
      "tính_cách": 2278,
      "liên_kết": 2279,
      "điều_hành": 2280,
      "thuộc": 2281,
      "thiếu_sót": 2282,
      "thuyết_phục": 2283,
      "thích_thú": 2284,
      "coloncontemn": 2285,
      "wzjwz23": 2286,
      "wzjwz22": 2287,
      "vừa_phải": 2288,
      "tham_quan": 2289,
      "soạn": 2290,
      "đặc_thù": 2291,
      "rèm": 2292,
      "cơ_sở_dữ_liệu": 2293,
      "nặng_nề": 2294,
      "thế_nào": 2295,
      "cố_định": 2296,
      "diễn_đàn": 2297,
      "wzjwz30": 2298,
      "mô_hình": 2299,
      "nguyên_tắc": 2300,
      "ngoại_ngữ": 2301,
      "họp": 2302,
      "project": 2303,
      "cửa_sổ": 2304,
      "ban_đầu": 2305,
      "đột_xuất": 2306,
      "hết_mình": 2307,
      "tân_tâm": 2308,
      "trau_dồi": 2309,
      "faceb": 2310,
      "sản_phẩm": 2311,
      "wecode": 2312,
      "ôn_thi": 2313,
      "an": 2314,
      "ba": 2315,
      "bóng": 2316,
      "cẩ": 2317,
      "kính": 2318,
      "mời": 2319,
      "nữ": 2320,
      "nay": 2321,
      "nắng": 2322,
      "sống": 2323,
      "sql": 2324,
      "tù": 2325,
      "tạm": 2326,
      "vẽ": 2327,
      "vòng": 2328,
      "xúc_tích": 2329,
      "##ỏa": 2330,
      "##im": 2331,
      "##ma": 2332,
      "##ate": 2333,
      "##áu": 2334,
      "##olon": 2335,
      "##ít": 2336,
      "##ưng": 2337,
      "##ụy": 2338,
      "giám": 2339,
      "##_viết": 2340,
      "chiếm": 2341,
      "khối": 2342,
      "khuôn": 2343,
      "giảng_lý": 2344,
      "##_thí_nghiệm": 2345,
      "##_hi": 2346,
      "##_hiện": 2347,
      "##_hồi": 2348,
      "tranh": 2349,
      "trầm": 2350,
      "##_đó": 2351,
      "##_đồng": 2352,
      "nhiệt_tâm": 2353,
      "pháp": 2354,
      "phấn": 2355,
      "phía": 2356,
      "##_lạnh": 2357,
      "##ượt": 2358,
      "quay": 2359,
      "##_báu": 2360,
      "##_trí": 2361,
      "với_lại": 2362,
      "##_ké": 2363,
      "##_mê": 2364,
      "giáo_án": 2365,
      "phòng_thí_nghiệm": 2366,
      "máy_lạnh": 2367,
      "hoang_mang": 2368,
      "mới_lạ": 2369,
      "mới_mẻ": 2370,
      "do_đó": 2371,
      "tự_tin": 2372,
      "sâu_sắc": 2373,
      "hòa_đồng": 2374,
      "không_thể_nào": 2375,
      "chú_tâm": 2376,
      "nhìn_chung": 2377,
      "tại_sao": 2378,
      "bao_quát": 2379,
      "lâu_lâu": 2380,
      "wzjwz32": 2381,
      "tổng_hợp": 2382,
      "chịu_khó": 2383,
      "bất_kỳ": 2384,
      "hi_hi": 2385,
      "quý_báu": 2386,
      "lưu_l": 2387,
      "lưu_ý": 2388,
      "chéo": 2389,
      "mệt_mỏi": 2390,
      "đều_đều": 2391,
      "dự_án": 2392,
      "tận_tụy": 2393,
      "lãng_phí": 2394,
      "12": 2395,
      "bó": 2396,
      "biên": 2397,
      "dàn": 2398,
      "ht": 2399,
      "ha": 2400,
      "lung": 2401,
      "lựa": 2402,
      "may": 2403,
      "mắc": 2404,
      "nản": 2405,
      "rời": 2406,
      "tiện": 2407,
      "tiêu": 2408,
      "vệ": 2409,
      "xung": 2410,
      "đam": 2411,
      "##_ào": 2412,
      "##_ít": 2413,
      "##ning": 2414,
      "##ml": 2415,
      "##ce": 2416,
      "##ep": 2417,
      "##du": 2418,
      "##ặm": 2419,
      "##ẹn": 2420,
      "##èn": 2421,
      "##_tinh": 2422,
      "thất": 2423,
      "thúc": 2424,
      "nhúng": 2425,
      "nhấn": 2426,
      "giữ": 2427,
      "##_viện": 2428,
      "chặt": 2429,
      "chênh": 2430,
      "khan": 2431,
      "khung": 2432,
      "khuyên": 2433,
      "##_hiệu": 2434,
      "trống": 2435,
      "tràn_l": 2436,
      "##_đi": 2437,
      "không_gian": 2438,
      "học_phí": 2439,
      "cho_qua": 2440,
      "##_lành": 2441,
      "##_lịch": 2442,
      "##n_thận": 2443,
      "##_bố": 2444,
      "##_biến": 2445,
      "##_bặm": 2446,
      "##_say": 2447,
      "##_sách": 2448,
      "##_soạn": 2449,
      "##_suất": 2450,
      "##_góp": 2451,
      "email": 2452,
      "làm_quen": 2453,
      "##n_định": 2454,
      "##_niệm": 2455,
      "một_tí": 2456,
      "##_chọn": 2457,
      "##ường_như": 2458,
      "##_phỏng": 2459,
      "giúp_ích": 2460,
      "mà_lại": 2461,
      "##_rồi": 2462,
      "##_rãi": 2463,
      "##_thuộc": 2464,
      "ít_nhất": 2465,
      "quan_sát": 2466,
      "công_sức": 2467,
      "công_bố": 2468,
      "tính_chất": 2469,
      "hết_sức": 2470,
      "chủ_quan": 2471,
      "trang_web": 2472,
      "đồng_ý": 2473,
      "phân_biệt": 2474,
      "phân_công": 2475,
      "phân_loại": 2476,
      "thích_hợp": 2477,
      "vừa_rồi": 2478,
      "sour": 2479,
      "hiền_lành": 2480,
      "##ent": 2481,
      "lời_giải": 2482,
      "xuất": 2483,
      "bàn_gh": 2484,
      "mô_phỏng": 2485,
      "bụi_bặm": 2486,
      "phản_hồi": 2487,
      "ồn_ào": 2488,
      "##_lệch": 2489,
      "##ork": 2490,
      "bất_cứ": 2491,
      "nhầm_lẫn": 2492,
      "đóng_góp": 2493,
      "hăng_say": 2494,
      "phổ_biến": 2495,
      "khái_quát": 2496,
      "di_động": 2497,
      "tóm_lại": 2498,
      "cân_bằng": 2499,
      "kế_hoạch": 2500,
      "##stening": 2501,
      "biện_pháp": 2502,
      "cẩn_thận": 2503,
      "khối_lượng": 2504,
      "tranh_luận": 2505,
      "lưu_loát": 2506,
      "lựa_chọn": 2507,
      "đam_mê": 2508,
      "chênh_lệch": 2509,
      "tràn_lan": 2510,
      "source": 2511,
      "bàn_ghế": 2512,
      "a_": 2513,
      "bức": 2514,
      "bây": 2515,
      "cs": 2516,
      "dồi": 2517,
      "dám": 2518,
      "dường_như": 2519,
      "hằng": 2520,
      "hiếm": 2521,
      "it": 2522,
      "lễ": 2523,
      "lơ": 2524,
      "lối": 2525,
      "lồng": 2526,
      "mày": 2527,
      "pos": 2528,
      "ro": 2529,
      "sạch": 2530,
      "ser": 2531,
      "tôn": 2532,
      "toán": 2533,
      "tes": 2534,
      "vốn": 2535,
      "ver": 2536,
      "xen": 2537,
      "ép": 2538,
      "đu": 2539,
      "đứ": 2540,
      "đạo": 2541,
      "đậu": 2542,
      "ấn": 2543,
      "ấy": 2544,
      "ổn_định": 2545,
      "##gsmile": 2546,
      "##igsmile": 2547,
      "##un": 2548,
      "##uống": 2549,
      "##ke": 2550,
      "##eic": 2551,
      "##àu": 2552,
      "##ra": 2553,
      "##re": 2554,
      "##om": 2555,
      "##ùa": 2556,
      "##bigsmile": 2557,
      "##00": 2558,
      "##ổng": 2559,
      "##ủng": 2560,
      "##ẳn": 2561,
      "##ẹt": 2562,
      "##_ta": 2563,
      "##_tức": 2564,
      "nha": 2565,
      "##_vấn": 2566,
      "chấp": 2567,
      "chật": 2568,
      "khía": 2569,
      "##_thông": 2570,
      "triển": 2571,
      "##_dòng": 2572,
      "##_diện": 2573,
      "##_điều": 2574,
      "##_điện": 2575,
      "##_đảm": 2576,
      "##_cử": 2577,
      "##_cạnh": 2578,
      "##_lo": 2579,
      "##_lao": 2580,
      "##_lộn": 2581,
      "thực_tập": 2582,
      "##_trách": 2583,
      "##n_đoạn": 2584,
      "##_mò": 2585,
      "##_mờ": 2586,
      "##_một": 2587,
      "##_mạnh": 2588,
      "##_nói": 2589,
      "##_chị": 2590,
      "##_nhẫn": 2591,
      "giải_thuật": 2592,
      "##_không": 2593,
      "##_khai": 2594,
      "mát": 2595,
      "##_rạc": 2596,
      "tâm_dạy": 2597,
      "thi_cử": 2598,
      "anh_chị": 2599,
      "công_trình": 2600,
      "liên_lạc": 2601,
      "tự_luận": 2602,
      "##iễu": 2603,
      "##ân_thành": 2604,
      "##one": 2605,
      "câu_lạc": 2606,
      "thay_thế": 2607,
      "chúng_ta": 2608,
      "đồng_bộ": 2609,
      "chuẩn_xác": 2610,
      "thuyết_hơi": 2611,
      "colonbigsmile": 2612,
      "##_tiếng": 2613,
      "dẫn_chứng": 2614,
      "năm_học": 2615,
      "dài_dòng": 2616,
      "bảo_đảm": 2617,
      "thiết_nghĩ": 2618,
      "chữ_viết": 2619,
      "tổng_quan": 2620,
      "100": 2621,
      "danh_sách": 2622,
      "kiến_trúc": 2623,
      "suông": 2624,
      "truyền_cảm_hứng": 2625,
      "phụ_thuộc": 2626,
      "đều_đặn": 2627,
      "kiên_nhẫn": 2628,
      "thể_hiện": 2629,
      "##dow": 2630,
      "listening": 2631,
      "gián_đoạn": 2632,
      "thao_tác": 2633,
      "giám_sát": 2634,
      "biên_soạn": 2635,
      "rời_rạc": 2636,
      "vệ_sinh": 2637,
      "bức_xúc": 2638,
      "bây_giờ": 2639,
      "ấn_tượng": 2640,
      "khía_cạnh": 2641,
      "triển_khai": 2642,
      "câu_lạc_bộ": 2643,
      "13": 2644,
      "45": 2645,
      "60": 2646,
      "av": 2647,
      "bé": 2648,
      "bút": 2649,
      "ca": 2650,
      "cúp": 2651,
      "dây": 2652,
      "diễn": 2653,
      "dừng": 2654,
      "hành": 2655,
      "hời": 2656,
      "ham": 2657,
      "hội": 2658,
      "hợt": 2659,
      "hẳn": 2660,
      "lệ": 2661,
      "lạc": 2662,
      "mảng": 2663,
      "pa": 2664,
      "rep": 2665,
      "st": 2666,
      "smile": 2667,
      "tay": 2668,
      "tậm": 2669,
      "tưởng": 2670,
      "xe": 2671,
      "yên": 2672,
      "y_ch": 2673,
      "ánh_s": 2674,
      "đơ": 2675,
      "đươ": 2676,
      "ơn": 2677,
      "ơi": 2678,
      "##pri": 2679,
      "##id": 2680,
      "##ly": 2681,
      "##uông": 2682,
      "##áy": 2683,
      "##àm": 2684,
      "##_tay": 2685,
      "thang": 2686,
      "nhân": 2687,
      "nhộn": 2688,
      "gia": 2689,
      "gió": 2690,
      "giành": 2691,
      "chị": 2692,
      "chết": 2693,
      "chửi": 2694,
      "chân_thành": 2695,
      "khúc": 2696,
      "##_thật": 2697,
      "##_hảo": 2698,
      "##_hái": 2699,
      "##_hóa": 2700,
      "##_đức": 2701,
      "##_đẹp": 2702,
      "không_nh": 2703,
      "học_b": 2704,
      "học_tiết": 2705,
      "nhiệt_tình_năng": 2706,
      "php": 2707,
      "pha": 2708,
      "phot": 2709,
      "##_cơ": 2710,
      "##_cập": 2711,
      "##_colon": 2712,
      "##_lược": 2713,
      "##_lang": 2714,
      "##_lưu": 2715,
      "thực_lực": 2716,
      "ngược": 2717,
      "##_bó": 2718,
      "##_trùng": 2719,
      "##_sĩ": 2720,
      "##_sư": 2721,
      "##_sánh": 2722,
      "##_siêu": 2723,
      "thực_hành_môn": 2724,
      "để_ý": 2725,
      "quá_sức": 2726,
      "##_kê": 2727,
      "##_mong": 2728,
      "##_mến": 2729,
      "vui_nh": 2730,
      "##_nổ": 2731,
      "##_nực": 2732,
      "một_ít": 2733,
      "##_chú": 2734,
      "##_người": 2735,
      "##_phó": 2736,
      "##_phong": 2737,
      "giải_lao": 2738,
      "đến_n": 2739,
      "chỉnh_s": 2740,
      "buộc": 2741,
      "##_xíu": 2742,
      "##_nghề": 2743,
      "hoài": 2744,
      "tự_giác": 2745,
      "chuyên_tâm": 2746,
      "nhất_thiết": 2747,
      "nếu_như": 2748,
      "nghĩa": 2749,
      "thu_hoạch": 2750,
      "bổ_trợ": 2751,
      "đối_phó": 2752,
      "giao_lưu": 2753,
      "chính_thức": 2754,
      "chính_trị": 2755,
      "so_sánh": 2756,
      "gặp_mặt": 2757,
      "##_ngữ_pháp": 2758,
      "vận_động": 2759,
      "nóng_tính": 2760,
      "nóng_nực": 2761,
      "tình_giảng": 2762,
      "hoàn_hảo": 2763,
      "colonsma": 2764,
      "viru": 2765,
      "##urpri": 2766,
      "bảo_trì": 2767,
      "quy_trình": 2768,
      "yếu_ké": 2769,
      "chẳng_hạn": 2770,
      "toeic": 2771,
      "trung_tâm": 2772,
      "trùng_lịch": 2773,
      "kiến_nghị": 2774,
      "màn_hình": 2775,
      "thẳng_th": 2776,
      "chăm_lo": 2777,
      "bất_cập": 2778,
      "hăng_hái": 2779,
      "phổ_thông": 2780,
      "##_ghép": 2781,
      "khái_niệm": 2782,
      "duy_nhất": 2783,
      "window": 2784,
      "thuận_tiện": 2785,
      "sil": 2786,
      "and": 2787,
      "tùy": 2788,
      "html": 2789,
      "thất_vọng": 2790,
      "nhấn_mạnh": 2791,
      "lồng_ghép": 2792,
      "tôn_trọng": 2793,
      "test": 2794,
      "đứa": 2795,
      "đạo_đức": 2796,
      "chấp_nhận": 2797,
      "y_chang": 2798,
      "ánh_sáng": 2799,
      "đươc": 2800,
      "không_những": 2801,
      "photo": 2802,
      "vui_nhộn": 2803,
      "chỉnh_sửa": 2804,
      "virus": 2805,
      "##urprise": 2806,
      "yếu_kém": 2807,
      "windows": 2808,
      "_p": 2809,
      "_g": 2810,
      "am": 2811,
      "bo": 2812,
      "bố": 2813,
      "bối": 2814,
      "cli": 2815,
      "cắt": 2816,
      "dở": 2817,
      "hủ": 2818,
      "hồi": 2819,
      "hóc": 2820,
      "hiễu": 2821,
      "kẹt": 2822,
      "lạ": 2823,
      "lau": 2824,
      "lin": 2825,
      "lợi": 2826,
      "ma": 2827,
      "mo": 2828,
      "mẹ": 2829,
      "mã": 2830,
      "mập": 2831,
      "mềm": 2832,
      "nằm": 2833,
      "on": 2834,
      "orac": 2835,
      "out": 2836,
      "ràng": 2837,
      "siêu": 2838,
      "súc_tích": 2839,
      "te": 2840,
      "tài": 2841,
      "tui": 2842,
      "uy": 2843,
      "vai": 2844,
      "vượt": 2845,
      "xét": 2846,
      "yo": 2847,
      "đành": 2848,
      "đau": 2849,
      "độc": 2850,
      "đợt": 2851,
      "đèn": 2852,
      "ưu": 2853,
      "ảo": 2854,
      "##_ánh": 2855,
      "##la": 2856,
      "##work": 2857,
      "##com": 2858,
      "##df": 2859,
      "##date": 2860,
      "##ộp": 2861,
      "##ụng": 2862,
      "##èo": 2863,
      "##_tận": 2864,
      "thô": 2865,
      "thiệt": 2866,
      "than": 2867,
      "thân": 2868,
      "thừa": 2869,
      "thỏa": 2870,
      "nhạt": 2871,
      "chứng": 2872,
      "kho": 2873,
      "khích": 2874,
      "khâu": 2875,
      "khởi": 2876,
      "##_thao": 2877,
      "tri": 2878,
      "##iếng": 2879,
      "##_dào": 2880,
      "##_dịch": 2881,
      "##_đồ": 2882,
      "##_đố": 2883,
      "##_đua": 2884,
      "##_đẩy": 2885,
      "có_hạn": 2886,
      "phê": 2887,
      "##_cứng": 2888,
      "##_code": 2889,
      "cho_dù": 2890,
      "##_lập": 2891,
      "##_lặp": 2892,
      "thực_ra": 2893,
      "quét": 2894,
      "quốc": 2895,
      "##_biện": 2896,
      "##_bạch": 2897,
      "##_trải": 2898,
      "##_slide": 2899,
      "##_soát": 2900,
      "môn_mạng": 2901,
      "làm_khó": 2902,
      "##_giúp": 2903,
      "tốt_nghiệp": 2904,
      "##_mắn": 2905,
      "##_máy": 2906,
      "##_nàn": 2907,
      "##_chắc": 2908,
      "##_chậm": 2909,
      "tiếc": 2910,
      "##_quạt": 2911,
      "##_quán": 2912,
      "thời_hạn": 2913,
      "##_nhớ": 2914,
      "kỹ_sư": 2915,
      "##_khổ": 2916,
      "tiếp_nhận": 2917,
      "đi_lại": 2918,
      "đề_bài": 2919,
      "đề_xuất": 2920,
      "đề_thực_hành": 2921,
      "từ_ngữ": 2922,
      "tâm_tạo": 2923,
      "thi_công": 2924,
      "công_tâm": 2925,
      "tính_toán": 2926,
      "liên_tưởng": 2927,
      "khác_gì": 2928,
      "cảm_nhận": 2929,
      "kỳ_thầy": 2930,
      "giải_đề": 2931,
      "##ân_thủ": 2932,
      "nhất_quán": 2933,
      "cập_nhập": 2934,
      "hết_lòng": 2935,
      "tương_tự": 2936,
      "##dote": 2937,
      "đồng_nhất": 2938,
      "##ube": 2939,
      "kinh_tế": 2940,
      "kiểm_soát": 2941,
      "tuân_thủ": 2942,
      "chậm_rãi": 2943,
      "ôn_luyện": 2944,
      "lịch_sự": 2945,
      "##roid": 2946,
      "thú_học": 2947,
      "hiền_dạy": 2948,
      "##_giáo_trình": 2949,
      "đặc_tả": 2950,
      "nóng_b": 2951,
      "hoàn_chỉnh": 2952,
      "nhận_thức": 2953,
      "năng_nổ": 2954,
      "lỗi_thời": 2955,
      "sơ_qua": 2956,
      "quyền": 2957,
      "ngành_nghề": 2958,
      "khóa_học": 2959,
      "định_nghĩa": 2960,
      "update": 2961,
      "thống_kê": 2962,
      "##_doubledot": 2963,
      "quản_trị": 2964,
      "tương_đương": 2965,
      "##ưỡi": 2966,
      "tư_tưởng": 2967,
      "vững_chắc": 2968,
      "lời_nói": 2969,
      "trò_chuyện": 2970,
      "mô_tả": 2971,
      "vắng_mặt": 2972,
      "phản_ánh": 2973,
      "phản_biện": 2974,
      "song_ngữ": 2975,
      "suy_luận": 2976,
      "tín_hiệu": 2977,
      "điện_tử": 2978,
      "con_người": 2979,
      "2008": 2980,
      "2010": 2981,
      "linh_động": 2982,
      "linh_kiện": 2983,
      "tiến_bộ": 2984,
      "tác_dụng": 2985,
      "tác_phong": 2986,
      "##harp": 2987,
      "##utube": 2988,
      "trợ_giảng": 2989,
      "tin_tức": 2990,
      "thuận_lợi": 2991,
      "thư_viện": 2992,
      "giảng_lý_thuyết": 2993,
      "may_mắn": 2994,
      "##dule": 2995,
      "thúc_đẩy": 2996,
      "xuất_sắc": 2997,
      "dồi_dào": 2998,
      "post": 2999,
      "server": 3000,
      "very": 3001,
      "xen_kẽ": 3002,
      "hành_lang": 3003,
      "khúc_mắc": 3004,
      "ngược_lại": 3005,
      "thẳng_thắn": 3006,
      "android": 3007,
      "bố_trí": 3008,
      "bối_rối": 3009,
      "clip": 3010,
      "lợi_ích": 3011,
      "module": 3012,
      "vai_trò": 3013,
      "youtube": 3014,
      "khích_lệ": 3015,
      "11": 3016,
      "_e": 3017,
      "biểu": 3018,
      "bầu": 3019,
      "bồi": 3020,
      "bẩn": 3021,
      "bit": 3022,
      "cỡ": 3023,
      "cột": 3024,
      "cây": 3025,
      "cưỡi": 3026,
      "dí": 3027,
      "dữ": 3028,
      "dần": 3029,
      "day": 3030,
      "dày": 3031,
      "dồn": 3032,
      "deb": 3033,
      "fi": 3034,
      "fu": 3035,
      "fr": 3036,
      "for": 3037,
      "gấp": 3038,
      "gộp": 3039,
      "h1": 3040,
      "hu": 3041,
      "hiều": 3042,
      "hước": 3043,
      "hào": 3044,
      "hút": 3045,
      "hàn_l": 3046,
      "hàm": 3047,
      "is": 3048,
      "lỡ": 3049,
      "lương": 3050,
      "lao": 3051,
      "lúng": 3052,
      "mông": 3053,
      "mối": 3054,
      "min": 3055,
      "pat": 3056,
      "quyết": 3057,
      "rễ": 3058,
      "rườ": 3059,
      "sh": 3060,
      "sót": 3061,
      "tỷ": 3062,
      "tiên": 3063,
      "tan": 3064,
      "tắt": 3065,
      "uit": 3066,
      "vướng": 3067,
      "xấu": 3068,
      "ý_thức": 3069,
      "đấy": 3070,
      "đám": 3071,
      "điển": 3072,
      "đẩy": 3073,
      "đùa": 3074,
      "ổ_điện": 3075,
      "##ỏm": 3076,
      "##ện": 3077,
      "##m_": 3078,
      "##m_r": 3079,
      "##loa": 3080,
      "##20": 3081,
      "##ux": 3082,
      "##uần": 3083,
      "##uter": 3084,
      "##et": 3085,
      "##res": 3086,
      "##ứt": 3087,
      "##surprise": 3088,
      "##45": 3089,
      "##ụt": 3090,
      "##ão": 3091,
      "##ỡ_ng": 3092,
      "##_tệ": 3093,
      "##_tu": 3094,
      "##_tiên": 3095,
      "##_tung": 3096,
      "##_túng": 3097,
      "thâm": 3098,
      "thói": 3099,
      "thí_nghiệm": 3100,
      "nhảm": 3101,
      "nhiệm": 3102,
      "giơ": 3103,
      "giang": 3104,
      "##_vòng": 3105,
      "##_vào": 3106,
      "##_văn": 3107,
      "chổ": 3108,
      "chức": 3109,
      "chào": 3110,
      "chat": 3111,
      "khớp": 3112,
      "##iệp": 3113,
      "giảng_tạo": 3114,
      "giảng_thầy": 3115,
      "giảng_chậm": 3116,
      "##_thiên": 3117,
      "##_thác": 3118,
      "##_thái": 3119,
      "##_thòi": 3120,
      "##_hai": 3121,
      "##_hẹp": 3122,
      "##_huống": 3123,
      "tra": 3124,
      "trí": 3125,
      "trai": 3126,
      "##_dễ": 3127,
      "##_dò": 3128,
      "##_đáp": 3129,
      "##_đọng": 3130,
      "có_học": 3131,
      "có_tâm": 3132,
      "có_điều": 3133,
      "học_toán": 3134,
      "học_hành": 3135,
      "nhiệt_tình_tâm": 3136,
      "phạt": 3137,
      "phối": 3138,
      "phấn_đ": 3139,
      "phỏng": 3140,
      "phim": 3141,
      "phone": 3142,
      "cho_nên": 3143,
      "##_la": 3144,
      "dễ_mến": 3145,
      "ngựa": 3146,
      "##n_thuần": 3147,
      "##_bổ": 3148,
      "##_bát": 3149,
      "##_bụng": 3150,
      "##_biếng": 3151,
      "##_trễ": 3152,
      "##_tránh": 3153,
      "##_sử": 3154,
      "##_studio": 3155,
      "thực_hành_sát": 3156,
      "##_gió": 3157,
      "##_giới": 3158,
      "quá_tải": 3159,
      "tốt_bụng": 3160,
      "##_mô": 3161,
      "##ươi": 3162,
      "##_dục": 3163,
      "##_nở": 3164,
      "##_nam": 3165,
      "chưa_thể": 3166,
      "##_chu": 3167,
      "##_chính": 3168,
      "##_chừng": 3169,
      "truy_cập": 3170,
      "truyện": 3171,
      "##_quanh": 3172,
      "thời_điểm": 3173,
      "##_nhật": 3174,
      "##_phương": 3175,
      "lý_thú": 3176,
      "cũ_kỹ": 3177,
      "##_xộn": 3178,
      "##_sinh_động": 3179,
      "hoa": 3180,
      "đề_mẫu": 3181,
      "hiệu_suất": 3182,
      "tâm_thương": 3183,
      "cao_siêu": 3184,
      "quan_điểm": 3185,
      "thi_thực_hành": 3186,
      "##_hợp_lý": 3187,
      "mong_trường": 3188,
      "mong_phòng": 3189,
      "khác_biệt": 3190,
      "cảm_tính": 3191,
      "kỳ_học": 3192,
      "câu_hỏi": 3193,
      "hoạt_bát": 3194,
      "##ote": 3195,
      "hình_như": 3196,
      "tập_luyện": 3197,
      "đồng_hồ": 3198,
      "số_tiết": 3199,
      "sửa_đổi": 3200,
      "thoáng": 3201,
      "##ublesurprise": 3202,
      "colondo": 3203,
      "đánh_đố": 3204,
      "code_mẫu": 3205,
      "văn_bản": 3206,
      "phong_thái": 3207,
      "tình_huống": 3208,
      "ghế": 3209,
      "thế_giới": 3210,
      "##ack": 3211,
      "hạn_hẹp": 3212,
      "sơ_lược": 3213,
      "mua": 3214,
      "quy_mô": 3215,
      "##_yêu": 3216,
      "bàn_phí": 3217,
      "vắng_tiết": 3218,
      "nguyên_lý": 3219,
      "dot5": 3220,
      "wires": 3221,
      "khắc_khe": 3222,
      "lẫn_lộn": 3223,
      "##ord": 3224,
      "mạch_lạc": 3225,
      "tỉ_lệ": 3226,
      "chăm_chỉ": 3227,
      "phụ_trách": 3228,
      "2005": 3229,
      "dặn_dò": 3230,
      "xinh_đẹp": 3231,
      "##dotvn": 3232,
      "2013": 3233,
      "minh_bạch": 3234,
      "gò_bó": 3235,
      "niềm_nở": 3236,
      "##hark": 3237,
      "duy_trì": 3238,
      "trải_nghiệm": 3239,
      "truyền_thông": 3240,
      "truyền_thống": 3241,
      "chém_gió": 3242,
      "thưc": 3243,
      "thiên_vị": 3244,
      "khuôn_mẫu": 3245,
      "khuôn_khổ": 3246,
      "dàn_trải": 3247,
      "lung_tung": 3248,
      "tiêu_chí": 3249,
      "xung_quanh": 3250,
      "csharp": 3251,
      "lơ_là": 3252,
      "mày_mò": 3253,
      "ép_buộc": 3254,
      "đuổi": 3255,
      "##_không_khí": 3256,
      "dây_mạng": 3257,
      "đơn_thuần": 3258,
      "học_bù": 3259,
      "silde": 3260,
      "hủy": 3261,
      "linux": 3262,
      "max": 3263,
      "mập_mờ": 3264,
      "online": 3265,
      "oracle": 3266,
      "ràng_buộc": 3267,
      "team": 3268,
      "tài_năng": 3269,
      "ưu_tiên": 3270,
      "thiệt_thòi": 3271,
      "phê_bình": 3272,
      "h15": 3273,
      "hào_hứng": 3274,
      "hàn_lâm": 3275,
      "lúng_túng": 3276,
      "mini": 3277,
      "patin": 3278,
      "rườm_r": 3279,
      "điển_hình": 3280,
      "##load": 3281,
      "thói_quen": 3282,
      "nhiệm_vụ": 3283,
      "chức_năng": 3284,
      "phối_hợp": 3285,
      "phấn_đấu": 3286,
      "colondoublesurprise": 3287,
      "bàn_phím": 3288,
      "wireshark": 3289,
      "rườm_rà": 3290,
      "25": 3291,
      "40": 3292,
      "80": 3293,
      "90": 3294,
      "=)": 3295,
      "ag": 3296,
      "bậ": 3297,
      "bề": 3298,
      "bật": 3299,
      "biến": 3300,
      "bai": 3301,
      "bục": 3302,
      "bấm": 3303,
      "bơi": 3304,
      "bỡ_ng": 3305,
      "cổ": 3306,
      "cầu": 3307,
      "cam": 3308,
      "cặp": 3309,
      "cầm": 3310,
      "da": 3311,
      "de": 3312,
      "dể": 3313,
      "dơ": 3314,
      "dời": 3315,
      "dạt": 3316,
      "dân": 3317,
      "er": 3318,
      "eng": 3319,
      "gật": 3320,
      "gánh": 3321,
      "gra": 3322,
      "he": 3323,
      "h5": 3324,
      "hát": 3325,
      "hắt": 3326,
      "hiêu": 3327,
      "hạnh": 3328,
      "h00": 3329,
      "h20": 3330,
      "h45": 3331,
      "im": 3332,
      "js": 3333,
      "ký": 3334,
      "lộ": 3335,
      "lủ": 3336,
      "liệu": 3337,
      "luyên": 3338,
      "lộn": 3339,
      "lửa": 3340,
      "lượt": 3341,
      "mò": 3342,
      "mượ": 3343,
      "mắt": 3344,
      "mắng": 3345,
      "miền": 3346,
      "mất_c": 3347,
      "mãi": 3348,
      "nợ": 3349,
      "nam": 3350,
      "nạp": 3351,
      "net": 3352,
      "não": 3353,
      "pdf": 3354,
      "sĩ": 3355,
      "sữa": 3356,
      "sub": 3357,
      "siêng": 3358,
      "shar": 3359,
      "tỏ": 3360,
      "tả": 3361,
      "tức": 3362,
      "tường": 3363,
      "tai": 3364,
      "tấm": 3365,
      "tòa": 3366,
      "vê": 3367,
      "vị": 3368,
      "vở": 3369,
      "vần": 3370,
      "xài": 3371,
      "xuyên": 3372,
      "xứng": 3373,
      "xưng": 3374,
      "đc": 3375,
      "đế": 3376,
      "đan": 3377,
      "ổ_c": 3378,
      "ỷ_lại": 3379,
      "##_f": 3380,
      "##_ổ": 3381,
      "##_ước": 3382,
      "##pe": 3383,
      "##nit": 3384,
      "##gh": 3385,
      "##m_lu": 3386,
      "##lt": 3387,
      "##t_l": 3388,
      "##tdote": 3389,
      "##um": 3390,
      "##colon": 3391,
      "##ks": 3392,
      "##elt": 3393,
      "##ft": 3394,
      "##rt": 3395,
      "##ow": 3396,
      "##ùi": 3397,
      "##ủi": 3398,
      "##ụp": 3399,
      "##âp": 3400,
      "##ât": 3401,
      "##ân_đ": 3402,
      "##ồm": 3403,
      "##ẫm": 3404,
      "##_từ": 3405,
      "##_tán": 3406,
      "##_tắt": 3407,
      "##_tuyệt": 3408,
      "##_tĩnh": 3409,
      "thày": 3410,
      "thiện": 3411,
      "thanh": 3412,
      "thắng": 3413,
      "thấu": 3414,
      "nhiểu": 3415,
      "nhật": 3416,
      "nhắm": 3417,
      "nhồi": 3418,
      "nhắn": 3419,
      "nhiêu": 3420,
      "giai": 3421,
      "giàu": 3422,
      "##_vi": 3423,
      "##_về": 3424,
      "##_vở": 3425,
      "##_vẹn": 3426,
      "chiến": 3427,
      "chec": 3428,
      "khu": 3429,
      "khỏi": 3430,
      "khai": 3431,
      "giản": 3432,
      "##iệng": 3433,
      "##_thảo": 3434,
      "##_thoại": 3435,
      "##_hộ": 3436,
      "##_hàng": 3437,
      "##_hụt": 3438,
      "tran": 3439,
      "treo": 3440,
      "##_dắt": 3441,
      "##_dáng": 3442,
      "##_đều": 3443,
      "##_đáng": 3444,
      "##_đắn": 3445,
      "##_đoán": 3446,
      "##_đợi": 3447,
      "##_đoạn": 3448,
      "dạy_toán": 3449,
      "nhiệt_thành": 3450,
      "nhiệt_tinh": 3451,
      "học_thuật": 3452,
      "nhiệt_tình_chịu": 3453,
      "nhiệt_tình_yêu": 3454,
      "phí": 3455,
      "phàn": 3456,
      "phép": 3457,
      "phạm": 3458,
      "##_co": 3459,
      "##_con": 3460,
      "##_cửa": 3461,
      "nhiều_chuyện": 3462,
      "##_lọc": 3463,
      "##_lỗi": 3464,
      "##_lắng": 3465,
      "thực_thi": 3466,
      "thực_trạng": 3467,
      "ngán": 3468,
      "ngừng": 3469,
      "quà": 3470,
      "##_bỏ": 3471,
      "##_trào": 3472,
      "##_sẽ": 3473,
      "##_seminar": 3474,
      "##_suông": 3475,
      "môn_hệ": 3476,
      "môn_toán": 3477,
      "tận_lực": 3478,
      "##_gồm": 3479,
      "hay_là": 3480,
      "kiến_th": 3481,
      "emb": 3482,
      "thực_hành_học": 3483,
      "lớp_tra": 3484,
      "tốt_giảng": 3485,
      "##uitdote": 3486,
      "##_mã": 3487,
      "##_mực": 3488,
      "##_mại": 3489,
      "##_micro": 3490,
      "##_mail": 3491,
      "vui_t": 3492,
      "vui_tạo": 3493,
      "nghèo": 3494,
      "##_nóng": 3495,
      "một_hai": 3496,
      "##_chi": 3497,
      "##_chuy": 3498,
      "##_chăng": 3499,
      "##_ngờ": 3500,
      "nói_r": 3501,
      "##_nhẹn": 3502,
      "##phone": 3503,
      "##_phận": 3504,
      "##_phối": 3505,
      "##_phúc": 3506,
      "giải_pháp": 3507,
      "giải_mẫu": 3508,
      "chỉnh": 3509,
      "chỉ_tiêu": 3510,
      "tận_tình_tạo": 3511,
      "##_khác": 3512,
      "màu": 3513,
      "phần_cứng": 3514,
      "cũng_nên": 3515,
      "##_xử": 3516,
      "##_xen": 3517,
      "##_năng_động": 3518,
      "máy_học": 3519,
      "##_nghi": 3520,
      "ram": 3521,
      "học_sinh_viên": 3522,
      "học_sinh_động": 3523,
      "đúng_đắn": 3524,
      "nhanh_nhẹn": 3525,
      "từ_từ": 3526,
      "##_rời": 3527,
      "##_rộn": 3528,
      "##_thua": 3529,
      "tâm_sự": 3530,
      "quan_hệ": 3531,
      "thi_môn": 3532,
      "thi_đua": 3533,
      "thông_cảm": 3534,
      "thông_minh": 3535,
      "tính_tình": 3536,
      "##_lý_thuyết": 3537,
      "liên_tiếp": 3538,
      "cảm_xúc": 3539,
      "tự_ý": 3540,
      "##iễm": 3541,
      "kỳ_môn": 3542,
      "kỳ_doubledot": 3543,
      "hỏi_đáp": 3544,
      "đảm_b": 3545,
      "thân_thiết": 3546,
      "bài_học_sinh_động": 3547,
      "tăng_tiết": 3548,
      "sát_sao": 3549,
      "nhất_định": 3550,
      "##dotcom": 3551,
      "mỗi_một": 3552,
      "chủ_nhật": 3553,
      "tập_thể": 3554,
      "tập_sát": 3555,
      "yêu_thích": 3556,
      "yêu_thương": 3557,
      "đồng_tình": 3558,
      "đồng_đều": 3559,
      "hợp_tác": 3560,
      "số_một": 3561,
      "giữa_chừng": 3562,
      "##_tác_dụng": 3563,
      "phân_phối": 3564,
      "thật_ra": 3565,
      "kinh_do": 3566,
      "thiếu_hụt": 3567,
      "tuổi": 3568,
      "thích_nghi": 3569,
      "bằng_chứng": 3570,
      "giao_viên": 3571,
      "chậm_trễ": 3572,
      "ôn_bài": 3573,
      "ôn_lại": 3574,
      "lịch_sử": 3575,
      "mở_cửa": 3576,
      "thứ_tự": 3577,
      "dẫn_dắt": 3578,
      "mất_tiết": 3579,
      "##rou": 3580,
      "năm_ngo": 3581,
      "hiền_giảng": 3582,
      "hiền_nhiệt_tình": 3583,
      "ngày_càng": 3584,
      "hiện_giờ": 3585,
      "hiện_tượng": 3586,
      "bao_gồm": 3587,
      "tình_cảm": 3588,
      "xin_lỗi": 3589,
      "mặc_định": 3590,
      "ghê": 3591,
      "ghép": 3592,
      "việt_nam": 3593,
      "cốt_l": 3594,
      "vô_lý": 3595,
      "dạng_toán": 3596,
      "rộng_rãi": 3597,
      "quy_hoạch": 3598,
      "sao_chép": 3599,
      "động_viên": 3600,
      "động_cơ": 3601,
      "định_lý": 3602,
      "upload": 3603,
      "khoảng_cách": 3604,
      "ghi_chú": 3605,
      "ghi_nhớ": 3606,
      "##ng_củng": 3607,
      "quạt_ổ": 3608,
      "bận_rộn": 3609,
      "lo_lắng": 3610,
      "hưng": 3611,
      "sách_giáo_trình": 3612,
      "sách_vở": 3613,
      "mặt_khác": 3614,
      "đăng_slide": 3615,
      "tư_liệu": 3616,
      "chút_xíu": 3617,
      "##amework": 3618,
      "công_nghệ_phần": 3619,
      "top": 3620,
      "thương_mại": 3621,
      "trung_năng_động": 3622,
      "xa_lạ": 3623,
      "xa_rời": 3624,
      "trở_thành": 3625,
      "bất_tiện": 3626,
      "bất_tuyệt": 3627,
      "visual_studio": 3628,
      "trùng_giờ": 3629,
      "phản_tác_dụng": 3630,
      "xác_suất": 3631,
      "rớt_môn": 3632,
      "xuống_cấp": 3633,
      "thử_nghiệm": 3634,
      "##log": 3635,
      "chăm_chú": 3636,
      "2009": 3637,
      "colonsadcolon": 3638,
      "lề_hơi": 3639,
      "phát_hiện": 3640,
      "2012": 3641,
      "lòng_vòng": 3642,
      "gọi_là": 3643,
      "kiên_trì": 3644,
      "bởi_vì": 3645,
      "cân_nhắc": 3646,
      "trợ_giúp": 3647,
      "quen_biết": 3648,
      "like": 3649,
      "rối_r": 3650,
      "truyền_thụ": 3651,
      "lười_biếng": 3652,
      "lặp_đi": 3653,
      "##rum": 3654,
      "thiên_về": 3655,
      "thao_thao": 3656,
      "sống_động": 3657,
      "tùm_lu": 3658,
      "##dudotvn": 3659,
      "source_code": 3660,
      "it00": 3661,
      "router": 3662,
      "sạch_sẽ": 3663,
      "đuối": 3664,
      "##_điện_tử": 3665,
      "hội_thảo": 3666,
      "lạc_đề": 3667,
      "reply": 3668,
      "tậm_tâm": 3669,
      "yên_tĩnh": 3670,
      "thang_điểm": 3671,
      "nhiệt_tình_năng_động": 3672,
      "pha_trò": 3673,
      "##_colonsmile": 3674,
      "đến_nỗi": 3675,
      "đến_nơi": 3676,
      "am_hiểu": 3677,
      "mẹo": 3678,
      "uyên": 3679,
      "##lab": 3680,
      "chứng_minh": 3681,
      "khởi_động": 3682,
      "tri_thức": 3683,
      "##_lặp_lại": 3684,
      "nóng_bức": 3685,
      "bầu_không_khí": 3686,
      "framework": 3687,
      "show": 3688,
      "tỷ_lệ": 3689,
      "vướng_mắc": 3690,
      "giang_viên": 3691,
      "bậc": 3692,
      "bỡ_ngỡ": 3693,
      "hạnh_phúc": 3694,
      "lộ_trình": 3695,
      "lủng_củng": 3696,
      "lộn_xộn": 3697,
      "mượn": 3698,
      "mất_công": 3699,
      "share": 3700,
      "tường_tận": 3701,
      "đan_xen": 3702,
      "ổ_cắm": 3703,
      "thiện_cảm": 3704,
      "thấu_hiểu": 3705,
      "giai_đoạn": 3706,
      "check": 3707,
      "khai_thác": 3708,
      "nhiệt_tình_chịu_khó": 3709,
      "phàn_nàn": 3710,
      "##uitdotedudotvn": 3711,
      "nói_riêng": 3712,
      "kinh_doanh": 3713,
      "năm_ngoái": 3714,
      "cốt_lõi": 3715,
      "quy_hoạch_động": 3716,
      "công_nghệ_phần_mềm": 3717,
      "lặp_đi_lặp_lại": 3718,
      "tùm_lum": 3719,
      "14": 3720,
      "19": 3721,
      "23": 3722,
      "32": 3723,
      "64": 3724,
      "75": 3725,
      "_n": 3726,
      "_y": 3727,
      "_ar": 3728,
      "_er": 3729,
      "bí": 3730,
      "biệt": 3731,
      "bày": 3732,
      "bào": 3733,
      "băm": 3734,
      "cú": 3735,
      "cờ": 3736,
      "cử": 3737,
      "cận": 3738,
      "cương": 3739,
      "cdio": 3740,
      "cổng": 3741,
      "cân_đ": 3742,
      "dạ": 3743,
      "dế": 3744,
      "db": 3745,
      "dẽ": 3746,
      "dọn": 3747,
      "dat": 3748,
      "dỏm": 3749,
      "dứt": 3750,
      "eb": 3751,
      "elab": 3752,
      "fork": 3753,
      "gb": 3754,
      "ganh": 3755,
      "góc": 3756,
      "gói": 3757,
      "gốc": 3758,
      "gom": 3759,
      "gủi": 3760,
      "grou": 3761,
      "hả": 3762,
      "hổ": 3763,
      "hồ": 3764,
      "hung": 3765,
      "huyết": 3766,
      "hea": 3767,
      "hac": 3768,
      "hẹn": 3769,
      "hổng": 3770,
      "ip": 3771,
      "id": 3772,
      "ios": 3773,
      "ielt": 3774,
      "kỷ": 3775,
      "kí": 3776,
      "kiển": 3777,
      "lu": 3778,
      "le": 3779,
      "lẻ": 3780,
      "lỳ": 3781,
      "lực": 3782,
      "leo": 3783,
      "lạnh": 3784,
      "lạm": 3785,
      "lưng": 3786,
      "me": 3787,
      "mù": 3788,
      "mê": 3789,
      "mồ": 3790,
      "mớ": 3791,
      "mỉ": 3792,
      "mưa": 3793,
      "mến": 3794,
      "mỏi": 3795,
      "mai": 3796,
      "miễn": 3797,
      "miệng": 3798,
      "nẻ": 3799,
      "nỗ": 3800,
      "nương": 3801,
      "not": 3802,
      "name": 3803,
      "od": 3804,
      "over": 3805,
      "pl": 3806,
      "pc": 3807,
      "pr": 3808,
      "po": 3809,
      "pin": 3810,
      "rỏ": 3811,
      "rẻ": 3812,
      "rập": 3813,
      "rành": 3814,
      "rải": 3815,
      "sm": 3816,
      "sw": 3817,
      "sc": 3818,
      "sli": 3819,
      "tý": 3820,
      "tá": 3821,
      "tế": 3822,
      "tầ": 3823,
      "tò": 3824,
      "tủ": 3825,
      "tẻ": 3826,
      "tất": 3827,
      "tiểu": 3828,
      "tồi": 3829,
      "tam": 3830,
      "tẳng": 3831,
      "tội": 3832,
      "tấn": 3833,
      "tiềm": 3834,
      "tma": 3835,
      "tươi": 3836,
      "tâp": 3837,
      "ub": 3838,
      "va": 3839,
      "võ": 3840,
      "vẻ": 3841,
      "vật": 3842,
      "vâng": 3843,
      "vắn": 3844,
      "vấn": 3845,
      "vote": 3846,
      "we": 3847,
      "wri": 3848,
      "xóa": 3849,
      "xml": 3850,
      "xàm": 3851,
      "êm_": 3852,
      "ôm": 3853,
      "đá": 3854,
      "đổ": 3855,
      "đị": 3856,
      "đỗ": 3857,
      "đên": 3858,
      "đâm": 3859,
      "đương": 3860,
      "đêm": 3861,
      "đảo": 3862,
      "đọng": 3863,
      "đoàn": 3864,
      "đội": 3865,
      "đen": 3866,
      "ưa": 3867,
      "ổn_th": 3868,
      "ủng": 3869,
      "ức": 3870,
      "##_j": 3871,
      "##_ơ": 3872,
      "##_âu": 3873,
      "##_ái": 3874,
      "##_ai": 3875,
      "##_ưu": 3876,
      "##ps": 3877,
      "##pb": 3878,
      "##per": 3879,
      "##put": 3880,
      "##nt": 3881,
      "##gn": 3882,
      "##ge": 3883,
      "##mw": 3884,
      "##mail": 3885,
      "##mit": 3886,
      "##ment": 3887,
      "##late": 3888,
      "##wn": 3889,
      "##23": 3890,
      "##ty": 3891,
      "##tphone": 3892,
      "##ug": 3893,
      "##us": 3894,
      "##ap": 3895,
      "##al": 3896,
      "##ase": 3897,
      "##ation": 3898,
      "##a_phương": 3899,
      "##en_th": 3900,
      "##ean": 3901,
      "##fc": 3902,
      "##rect": 3903,
      "##rnit": 3904,
      "##o_nhỏ": 3905,
      "##dl": 3906,
      "##dia": 3907,
      "##ễn": 3908,
      "##ển_đ": 3909,
      "##í_hướng": 3910,
      "##êng": 3911,
      "##ơp": 3912,
      "##sh": 3913,
      "##sy": 3914,
      "##so": 3915,
      "##sic": 3916,
      "##slate": 3917,
      "##v6": 3918,
      "##vle": 3919,
      "##bc": 3920,
      "##ble": 3921,
      "##bin": 3922,
      "##base": 3923,
      "##bean": 3924,
      "##ền_th": 3925,
      "##ị_trường": 3926,
      "##ờn": 3927,
      "##ờ_ơ": 3928,
      "##ẹo": 3929,
      "##én": 3930,
      "##ìu": 3931,
      "##ũng": 3932,
      "##_to": 3933,
      "##_tư": 3934,
      "##_tất": 3935,
      "##_tướng": 3936,
      "##_tai": 3937,
      "##_tốt": 3938,
      "##_tốc": 3939,
      "thà": 3940,
      "thẻ": 3941,
      "thở": 3942,
      "them": 3943,
      "thách": 3944,
      "thấm": 3945,
      "thơi": 3946,
      "thưởng": 3947,
      "thèm": 3948,
      "thức_t": 3949,
      "thị_trường": 3950,
      "thờ_ơ": 3951,
      "nhạy": 3952,
      "nhăn": 3953,
      "nhiê": 3954,
      "nhựa": 3955,
      "nhiễm": 3956,
      "nho_nhỏ": 3957,
      "nhìu": 3958,
      "gian": 3959,
      "giời": 3960,
      "giây": 3961,
      "##_vả": 3962,
      "##_vẽ": 3963,
      "##_vầy": 3964,
      "##_vui": 3965,
      "##_vàng": 3966,
      "##_vựng": 3967,
      "##_vuông": 3968,
      "chế": 3969,
      "chớ": 3970,
      "chăng": 3971,
      "chân": 3972,
      "chục": 3973,
      "chừng": 3974,
      "chót": 3975,
      "chấn": 3976,
      "chuyến": 3977,
      "chốt": 3978,
      "chèn": 3979,
      "chụp": 3980,
      "chí_hướng": 3981,
      "khí": 3982,
      "khổ": 3983,
      "khâm": 3984,
      "khuyết": 3985,
      "khiếu": 3986,
      "khơi": 3987,
      "khẳng": 3988,
      "khủng": 3989,
      "giảnh": 3990,
      "giảng_d": 3991,
      "##_thự": 3992,
      "##_thủ": 3993,
      "##_thở": 3994,
      "##_thiểu": 3995,
      "##_thuyên": 3996,
      "##_thiếu": 3997,
      "##_thống": 3998,
      "##_thách": 3999,
      "##_thắng": 4000,
      "##_thưởng": 4001,
      "##_han": 4002,
      "##_hôi": 4003,
      "##_huyến": 4004,
      "##_hậu": 4005,
      "##_hơp": 4006,
      "trông": 4007,
      "trái": 4008,
      "trọn": 4009,
      "trừng": 4010,
      "##iến_thức": 4011,
      "##_dần": 4012,
      "##_dấu": 4013,
      "##_dỏm": 4014,
      "sinh_v": 4015,
      "sinh_ho": 4016,
      "vàng": 4017,
      "bài_bản": 4018,
      "bài_giảng": 4019,
      "##_đình": 4020,
      "##_đới": 4021,
      "##_đời": 4022,
      "##_đạt": 4023,
      "##_đạo": 4024,
      "##_đối": 4025,
      "##_đôi": 4026,
      "##_đây": 4027,
      "##_điển": 4028,
      "##_đóng": 4029,
      "##_đùa": 4030,
      "dạy_ngữ": 4031,
      "##uyễn": 4032,
      "nhiệt_tính": 4033,
      "học_lực": 4034,
      "học_khoa": 4035,
      "học_trùng": 4036,
      "học_thiên": 4037,
      "nhiệt_tình_thương": 4038,
      "phủ": 4039,
      "phúc": 4040,
      "phiếu": 4041,
      "phiền": 4042,
      "phầm": 4043,
      "##_cu": 4044,
      "##_cs": 4045,
      "##_củ": 4046,
      "##_cáp": 4047,
      "##_cộng": 4048,
      "##_cái": 4049,
      "##_cười": 4050,
      "choáng": 4051,
      "##ần_nh": 4052,
      "##_lờ": 4053,
      "##_lông": 4054,
      "##_lối": 4055,
      "##_lầm": 4056,
      "##_lướt": 4057,
      "##_loạt": 4058,
      "dễ_thở": 4059,
      "thực_nghiệm": 4060,
      "ngỡ": 4061,
      "ngập": 4062,
      "ngang": 4063,
      "ngọn": 4064,
      "ngiêm": 4065,
      "ngẫu": 4066,
      "quỹ": 4067,
      "quăng": 4068,
      "cô_đọng": 4069,
      "##n_thảo": 4070,
      "##_bè": 4071,
      "##_bác": 4072,
      "##_bại": 4073,
      "##_bạc": 4074,
      "##_trở": 4075,
      "##_trừ": 4076,
      "##_trần": 4077,
      "##_tròn": 4078,
      "##_tranh": 4079,
      "##_trang": 4080,
      "##_trưởng": 4081,
      "##_trắc_nghiệm": 4082,
      "##_trưng": 4083,
      "bài_tập_kết": 4084,
      "##_sơ": 4085,
      "##_sợ": 4086,
      "##_sai": 4087,
      "##_speaking": 4088,
      "##_sql": 4089,
      "được_cái": 4090,
      "môn_lý": 4091,
      "##_gáp": 4092,
      "##_gàng": 4093,
      "##_gái": 4094,
      "##_gắt": 4095,
      "thực_hành_mạng": 4096,
      "thực_hành_trùng": 4097,
      "##andf": 4098,
      "##_tâm_huyết": 4099,
      "làm_nên": 4100,
      "làm_chi": 4101,
      "như_vầy": 4102,
      "##_giảm": 4103,
      "##_giục": 4104,
      "tốt_đẹp": 4105,
      "khó_lòng": 4106,
      "khó_dễ": 4107,
      "##_kiệm": 4108,
      "##_kiến_thức": 4109,
      "##_mộ": 4110,
      "##_mật": 4111,
      "##_màng": 4112,
      "##_mục": 4113,
      "vui_tinh": 4114,
      "nghiệp": 4115,
      "##_nửa": 4116,
      "một_nửa": 4117,
      "##_chỗ": 4118,
      "##_ché": 4119,
      "##_chẽ": 4120,
      "##_chương": 4121,
      "giáo_viện": 4122,
      "truyển": 4123,
      "truyền_đ": 4124,
      "những_ai": 4125,
      "##_thể_dục": 4126,
      "##_ngột": 4127,
      "##_ngại": 4128,
      "##_ngán": 4129,
      "##_nguyện": 4130,
      "##_ngơi": 4131,
      "thời_tiết": 4132,
      "thời_sự": 4133,
      "##_nhã": 4134,
      "##_nhiều": 4135,
      "##_nhằng": 4136,
      "##_nhịp": 4137,
      "##_nhét": 4138,
      "lênin": 4139,
      "##_phố": 4140,
      "##_phạt": 4141,
      "##_phiền": 4142,
      "##iện_tử": 4143,
      "giải_toán": 4144,
      "lý_giải": 4145,
      "thì_giờ": 4146,
      "kỹ_sát": 4147,
      "hơi_rối": 4148,
      "tận_tình_giảng": 4149,
      "nội_dụng": 4150,
      "##_khuôn": 4151,
      "##_khởi": 4152,
      "##_khoát": 4153,
      "lý_thuyết_suông": 4154,
      "##ligh": 4155,
      "##lity": 4156,
      "##lish": 4157,
      "máu": 4158,
      "##_xạ": 4159,
      "##_xứ": 4160,
      "##_xung": 4161,
      "##_quản": 4162,
      "đi_đôi": 4163,
      "hoc": 4164,
      "đề_án": 4165,
      "đề_mở": 4166,
      "đề_khó": 4167,
      "đề_đóng": 4168,
      "đề_mục": 4169,
      "nhà_giáo": 4170,
      "##ement": 4171,
      "slides": 4172,
      "slide_trình": 4173,
      "##_thuận": 4174,
      "phải_biết": 4175,
      "chip": 4176,
      "tâm_": 4177,
      "tâm_học": 4178,
      "tâm_huyến": 4179,
      "phương_án": 4180,
      "phương_tiện": 4181,
      "phương_diện": 4182,
      "thi_hơi": 4183,
      "thi_sát": 4184,
      "down": 4185,
      "anh_em": 4186,
      "đói": 4187,
      "sự_dụng": 4188,
      "sự_thật": 4189,
      "##indotcom": 4190,
      "công_dụng": 4191,
      "công_minh": 4192,
      "thông_thường": 4193,
      "tính_năng": 4194,
      "mong_đợi": 4195,
      "biết_điều": 4196,
      "tiết_chế": 4197,
      "tiết_kiệm": 4198,
      "nghỉ_tiết": 4199,
      "cảm_tình": 4200,
      "tự_do": 4201,
      "tự_khắc": 4202,
      "tự_nguyện": 4203,
      "kỳ_qu": 4204,
      "kỳ_thi": 4205,
      "kỳ_thực_hành": 4206,
      "kỳ_lý_thuyết": 4207,
      "bạn_bè": 4208,
      "hỏi_han": 4209,
      "chuỗi": 4210,
      "nâng_độ": 4211,
      "áp_dung": 4212,
      "ngon": 4213,
      "cơ_chế": 4214,
      "cơ_mà": 4215,
      "nhất_là": 4216,
      "trường_học": 4217,
      "hết_tiết": 4218,
      "cập_nhật_giáo": 4219,
      "đôi_chút": 4220,
      "tương_quan": 4221,
      "tương_thích": 4222,
      "tương_ứng": 4223,
      "##dotuitdotedudotvn": 4224,
      "##_thúy": 4225,
      "trang_co": 4226,
      "tập_minh": 4227,
      "đồng_loạt": 4228,
      "##_độc": 4229,
      "nghĩ_tiết": 4230,
      "thua": 4231,
      "thuần": 4232,
      "đầu_kỳ": 4233,
      "đầu_ra": 4234,
      "đầu_khóa": 4235,
      "đầu_vào": 4236,
      "bổ_xung": 4237,
      "phân_hóa": 4238,
      "phân_tán": 4239,
      "buồn_chán": 4240,
      "đối_thoại": 4241,
      "chuẩn_mực": 4242,
      "kinh_mong": 4243,
      "kinh_điển": 4244,
      "kiểm_chứng": 4245,
      "turnit": 4246,
      "thuyết_kỹ": 4247,
      "thích_ứng": 4248,
      "bằng_cấp": 4249,
      "giao_diện": 4250,
      "hòa_nhã": 4251,
      "vừa_qua": 4252,
      "chính_tả": 4253,
      "chính_thống": 4254,
      "soc": 4255,
      "soft": 4256,
      "sort": 4257,
      "đa_cấp": 4258,
      "phát_sinh": 4259,
      "tuyển": 4260,
      "mở_mang": 4261,
      "tích_hợp": 4262,
      "lab_khoa": 4263,
      "sai_lầm": 4264,
      "văn_phòng": 4265,
      "truyền_dạy": 4266,
      "đề_cao": 4267,
      "trọng_điểm": 4268,
      "phong_độ": 4269,
      "phong_trào": 4270,
      "##are": 4271,
      "##artphone": 4272,
      "hiền_tận": 4273,
      "##_giáo_khoa": 4274,
      "bám_sát": 4275,
      "##_luật": 4276,
      "tuyệt_đối": 4277,
      "hài_hòa": 4278,
      "tại_chỗ": 4279,
      "bao_ch": 4280,
      "tình_năng": 4281,
      "tình_giải": 4282,
      "hoàn_tất": 4283,
      "nhận_diện": 4284,
      "thành_tích": 4285,
      "thành_phần": 4286,
      "thành_thật": 4287,
      "thành_phố": 4288,
      "colonsurprise": 4289,
      "thế_là": 4290,
      "lớn_tiếng": 4291,
      "lớn_tu": 4292,
      "vô_l": 4293,
      "vô_ích": 4294,
      "bảo_thủ": 4295,
      "bảo_mật": 4296,
      "cùng_với": 4297,
      "##àn_thể": 4298,
      "dù_sao": 4299,
      "bộ_phận": 4300,
      "rộng_lớn": 4301,
      "sơ_đồ": 4302,
      "quy_tắc": 4303,
      "định_kỳ": 4304,
      "giới_hạn": 4305,
      "ghi_nhận": 4306,
      "lâu_dài": 4307,
      "quạt_máy": 4308,
      "quạt_trần": 4309,
      "love": 4310,
      "lo_sợ": 4311,
      "sẵn_lòng": 4312,
      "mơ_màng": 4313,
      "sách_giáo_khoa": 4314,
      "##ting": 4315,
      "cuộc_đời": 4316,
      "tổng_điểm": 4317,
      "tổng_kết": 4318,
      "##ery": 4319,
      "sơ_sơ": 4320,
      "tư_vấn": 4321,
      "vững_vàng": 4322,
      "lôi_ké": 4323,
      "sức_học": 4324,
      "lời_lẽ": 4325,
      "toàn_thể": 4326,
      "xu_hướng": 4327,
      "##itch": 4328,
      "chịu_thua": 4329,
      "trừ_điểm": 4330,
      "đơn_giản_hóa": 4331,
      "góp_phần": 4332,
      "nhắc_đi": 4333,
      "loa_micro": 4334,
      "đại_gia": 4335,
      "đại_loại": 4336,
      "bất_lợi": 4337,
      "bất_ngờ": 4338,
      "nguyên_cứu": 4339,
      "nguyên_nhân": 4340,
      "##_nhắc_lại": 4341,
      "dotnet": 4342,
      "bản_xứ": 4343,
      "chọn_lọc": 4344,
      "trẻ_trung": 4345,
      "phản_xạ": 4346,
      "cấp_độ": 4347,
      "nhuần_nh": 4348,
      "quý_thầy": 4349,
      "tâm_nhiệt_tình_tiết": 4350,
      "lưu_tâm": 4351,
      "##ort": 4352,
      "##vel": 4353,
      "chuyển_đ": 4354,
      "tối_ưu": 4355,
      "nửa_kỳ": 4356,
      "prog": 4357,
      "prolog": 4358,
      "tỉnh": 4359,
      "thử_thách": 4360,
      "kịp_thời_gian": 4361,
      "phụ_đạo": 4362,
      "con_số": 4363,
      "2003": 4364,
      "bất_công": 4365,
      "xinh_dạy": 4366,
      "##_đa_số": 4367,
      "wzjwz83": 4368,
      "wzjwz81": 4369,
      "wzjwz82": 4370,
      "wzjwz80": 4371,
      "cười_tạo": 4372,
      "dự_kiến": 4373,
      "đột_ngột": 4374,
      "hết_mực": 4375,
      "hết_mức": 4376,
      "di_chuy": 4377,
      "direct": 4378,
      "hàng_đầu": 4379,
      "kiên_thức": 4380,
      "linh_tinh": 4381,
      "##verligh": 4382,
      "thể_thao": 4383,
      "thể_dục": 4384,
      "tiến_trình": 4385,
      "tiến_hành": 4386,
      "tiến_sĩ": 4387,
      "wzjwz314": 4388,
      "tác_động": 4389,
      "loại_bỏ": 4390,
      "gắn_kết": 4391,
      "kế_tiếp": 4392,
      "ăn_ý": 4393,
      "tận_tậm": 4394,
      "wzjwz133": 4395,
      "gọn_gàng": 4396,
      "liền_mạch": 4397,
      "đường_lối": 4398,
      "an_toàn": 4399,
      "basic": 4400,
      "nắng_nóng": 4401,
      "vòng_v": 4402,
      "trầm_trọng": 4403,
      "tiện_lợi": 4404,
      "tiêu_cực": 4405,
      "thất_bại": 4406,
      "thúc_giục": 4407,
      "chặt_chẽ": 4408,
      "##entra": 4409,
      "xuất_hiện": 4410,
      "cs_j": 4411,
      "roun": 4412,
      "robin": 4413,
      "servle": 4414,
      "xen_lẫn": 4415,
      "##untu": 4416,
      "chật_lượng": 4417,
      "mát_mẻ": 4418,
      "av3": 4419,
      "av1": 4420,
      "béo": 4421,
      "bút_lông": 4422,
      "cúp_tiết": 4423,
      "diễn_giải": 4424,
      "ham_học": 4425,
      "lệnh": 4426,
      "lệch": 4427,
      "paste": 4428,
      "paper": 4429,
      "standf": 4430,
      "tưởng_tượng": 4431,
      "nhân_tạo": 4432,
      "nhân_bản": 4433,
      "gia_đình": 4434,
      "gia_trưởng": 4435,
      "học_bổng": 4436,
      "##_cơ_bản": 4437,
      "silverligh": 4438,
      "mẹ_tròn": 4439,
      "mã_độc": 4440,
      "outcom": 4441,
      "đau_đầu": 4442,
      "độc_đáo": 4443,
      "thô_tục": 4444,
      "thanks": 4445,
      "than_phiền": 4446,
      "quốc_gia": 4447,
      "quốc_tế": 4448,
      "quyền_lợi": 4449,
      "bồi_bổ": 4450,
      "dí_dỏm": 4451,
      "dần_dần": 4452,
      "debate": 4453,
      "debug": 4454,
      "fix": 4455,
      "forum": 4456,
      "gấp_gáp": 4457,
      "quyết_định": 4458,
      "quyết_đoán": 4459,
      "tiên_quyết": 4460,
      "tiên_tiến": 4461,
      "tan_học": 4462,
      "##_tuệ": 4463,
      "thâm_thúy": 4464,
      "trí_tuệ": 4465,
      "nhiệt_tình_tâm_huyết": 4466,
      "phỏng_vấn": 4467,
      "##_chuẩn": 4468,
      "##_phương_pháp": 4469,
      "thưc_hành": 4470,
      "hủy_môn": 4471,
      "bề_ngoài": 4472,
      "bấm_cáp": 4473,
      "english": 4474,
      "h59": 4475,
      "luyên_thuyên": 4476,
      "submit": 4477,
      "tức_là": 4478,
      "vị_trí": 4479,
      "đếm": 4480,
      "##_fraction": 4481,
      "nhồi_nhét": 4482,
      "chiến_lược": 4483,
      "translate": 4484,
      "##_con_vuông": 4485,
      "kiến_thực": 4486,
      "embly": 4487,
      "vui_tươi": 4488,
      "nghèo_nàn": 4489,
      "đảm_bao": 4490,
      "hưng_thú": 4491,
      "topic": 4492,
      "thương_mại_điện_tử": 4493,
      "rối_rắm": 4494,
      "uyên_bác": 4495,
      "cờ_tướng": 4496,
      "cân_đối": 4497,
      "dứt_khoát": 4498,
      "ganh_đua": 4499,
      "group": 4500,
      "heaps": 4501,
      "hacke": 4502,
      "ipv6": 4503,
      "ida": 4504,
      "ielts": 4505,
      "level": 4506,
      "lạm_dụng": 4507,
      "mồ_hôi": 4508,
      "mỉm": 4509,
      "nẻo": 4510,
      "nỗ_lực": 4511,
      "rập_khuôn": 4512,
      "rành_mạch": 4513,
      "smartphone": 4514,
      "switch": 4515,
      "scrum": 4516,
      "slile": 4517,
      "tầng": 4518,
      "tò_mò": 4519,
      "tất_nhiên": 4520,
      "tiểu_luận": 4521,
      "tấn_công": 4522,
      "ubuntu": 4523,
      "vật_lý": 4524,
      "vắn_tắt": 4525,
      "writing": 4526,
      "êm_êm": 4527,
      "địa_phương": 4528,
      "đâm_ra": 4529,
      "đảo_lộn": 4530,
      "ổn_thỏa": 4531,
      "ủng_hộ": 4532,
      "ức_chế": 4533,
      "##mware": 4534,
      "thơi_gian": 4535,
      "nhăn_nh": 4536,
      "nhiêt": 4537,
      "chấn_chỉnh": 4538,
      "khâm_phục": 4539,
      "khuyết_điểm": 4540,
      "khẳng_định": 4541,
      "trọn_vẹn": 4542,
      "trừng_phạt": 4543,
      "sinh_hoạt": 4544,
      "phầm_mềm": 4545,
      "ngiêm_túc": 4546,
      "ngẫu_nhiên": 4547,
      "bài_tập_kết_hợp": 4548,
      "nghiệp_vụ": 4549,
      "trang_course": 4550,
      "turnitindotcom": 4551,
      "lớn_tuổi": 4552,
      "lôi_kéo": 4553,
      "nhắc_đi_nhắc_lại": 4554,
      "nhuần_nhuyễn": 4555,
      "di_chuyển": 4556,
      "directx": 4557,
      "##entrality": 4558,
      "cs_js": 4559,
      "round": 4560,
      "servlet": 4561,
      "standford": 4562,
      "silverlight": 4563,
      "mẹ_tròn_con_vuông": 4564,
      "heapsort": 4565,
      "27": 4566,
      "24": 4567,
      "245": 4568,
      "36": 4569,
      "34": 4570,
      "320": 4571,
      "47": 4572,
      "49": 4573,
      "67": 4574,
      "70": 4575,
      "85": 4576,
      "92": 4577,
      "95": 4578,
      ";)": 4579,
      "_h": 4580,
      "_a": 4581,
      "_c": 4582,
      "_r": 4583,
      "_đ": 4584,
      "_v": 4585,
      "_ay": 4586,
      "_an": 4587,
      "_de": 4588,
      "_sy": 4589,
      "ap": 4590,
      "al": 4591,
      "a2": 4592,
      "at": 4593,
      "ar": 4594,
      "aep": 4595,
      "are": 4596,
      "abc": 4597,
      "a_to": 4598,
      "bl": 4599,
      "bự": 4600,
      "bồ": 4601,
      "bẻ": 4602,
      "bỗ": 4603,
      "bay": 4604,
      "bải": 4605,
      "bắc": 4606,
      "bán": 4607,
      "bấy": 4608,
      "bôi": 4609,
      "bâng": 4610,
      "băn": 4611,
      "bốn": 4612,
      "bắng": 4613,
      "bia": 4614,
      "bes": 4615,
      "bốc": 4616,
      "bri": 4617,
      "bưng": 4618,
      "bàu": 4619,
      "biếng": 4620,
      "bet": 4621,
      "c_": 4622,
      "cp": 4623,
      "cn": 4624,
      "cọ": 4625,
      "cư": 4626,
      "cở": 4627,
      "cọc": 4628,
      "cày": 4629,
      "cau": 4630,
      "cạn": 4631,
      "cấm": 4632,
      "car": 4633,
      "cứu": 4634,
      "crac": 4635,
      "clo": 4636,
      "cậu": 4637,
      "càu": 4638,
      "cla": 4639,
      "crt": 4640,
      "cùi": 4641,
      "centrality": 4642,
      "du": 4643,
      "df": 4644,
      "dộ": 4645,
      "ds": 4646,
      "dv": 4647,
      "dò": 4648,
      "dề": 4649,
      "dã": 4650,
      "dầy": 4651,
      "dông": 4652,
      "dược": 4653,
      "dan": 4654,
      "dung": 4655,
      "dán": 4656,
      "dến": 4657,
      "dúng": 4658,
      "dọng": 4659,
      "dục": 4660,
      "dro": 4661,
      "duyệt": 4662,
      "dấu": 4663,
      "dựng": 4664,
      "dri": 4665,
      "dre": 4666,
      "dũng": 4667,
      "e_": 4668,
      "eg": 4669,
      "el": 4670,
      "ea": 4671,
      "ed": 4672,
      "ex": 4673,
      "ever": 4674,
      "ent": 4675,
      "e_ngại": 4676,
      "fan": 4677,
      "fam": 4678,
      "fail": 4679,
      "fra": 4680,
      "gt": 4681,
      "gó": 4682,
      "gõ": 4683,
      "gs": 4684,
      "gờ": 4685,
      "gỡ": 4686,
      "gầy": 4687,
      "gạy": 4688,
      "gọc": 4689,
      "gác": 4690,
      "gay": 4691,
      "gương": 4692,
      "gẫn": 4693,
      "gán": 4694,
      "gạo": 4695,
      "gượng": 4696,
      "gái": 4697,
      "gục": 4698,
      "gạch": 4699,
      "gmail": 4700,
      "hạ": 4701,
      "hà": 4702,
      "hù": 4703,
      "hứ": 4704,
      "hú": 4705,
      "hở": 4706,
      "hì": 4707,
      "hố": 4708,
      "hè": 4709,
      "hiên": 4710,
      "hâm": 4711,
      "hạt": 4712,
      "hường": 4713,
      "hao": 4714,
      "hôi": 4715,
      "hiếu": 4716,
      "hóm": 4717,
      "hỗi": 4718,
      "hồn": 4719,
      "hub": 4720,
      "hưởng": 4721,
      "hầm": 4722,
      "hiển": 4723,
      "hes": 4724,
      "hậu": 4725,
      "hỏa": 4726,
      "huống": 4727,
      "hụt": 4728,
      "hdl": 4729,
      "hờn": 4730,
      "ic": 4731,
      "if": 4732,
      "ide": 4733,
      "ive": 4734,
      "ido": 4735,
      "ign": 4736,
      "j2": 4737,
      "jq": 4738,
      "jack": 4739,
      "km": 4740,
      "k3": 4741,
      "ko": 4742,
      "k6": 4743,
      "kay": 4744,
      "kiện": 4745,
      "kiễ": 4746,
      "kiêm": 4747,
      "kiệm": 4748,
      "kiệp": 4749,
      "kẹo": 4750,
      "lọ": 4751,
      "lê": 4752,
      "lẹ": 4753,
      "lở": 4754,
      "lã": 4755,
      "lẽ": 4756,
      "lài": 4757,
      "lông": 4758,
      "liệt": 4759,
      "lược": 4760,
      "lắc": 4761,
      "lem": 4762,
      "lước": 4763,
      "lảng": 4764,
      "lằng": 4765,
      "lặt": 4766,
      "lỏng": 4767,
      "lấn": 4768,
      "lõi": 4769,
      "lang_mang": 4770,
      "lun": 4771,
      "lủng": 4772,
      "lèo": 4773,
      "lâp": 4774,
      "mi": 4775,
      "mc": 4776,
      "my": 4777,
      "mó": 4778,
      "mỹ": 4779,
      "miên": 4780,
      "miệt": 4781,
      "mác": 4782,
      "mải": 4783,
      "mêm": 4784,
      "mòn": 4785,
      "mâu": 4786,
      "mật": 4787,
      "muôn": 4788,
      "mây": 4789,
      "mồi": 4790,
      "mac": 4791,
      "mấu": 4792,
      "mốt": 4793,
      "mat": 4794,
      "mùa": 4795,
      "mid": 4796,
      "mfc": 4797,
      "nu": 4798,
      "nà": 4799,
      "no": 4800,
      "nọ": 4801,
      "náo": 4802,
      "nòng": 4803,
      "nán": 4804,
      "nối": 4805,
      "nang": 4806,
      "nai": 4807,
      "nỗi": 4808,
      "niền": 4809,
      "nét": 4810,
      "nảy": 4811,
      "note": 4812,
      "nfc": 4813,
      "nén": 4814,
      "oi": 4815,
      "om": 4816,
      "oan": 4817,
      "our": 4818,
      "pg": 4819,
      "pm": 4820,
      "pđ": 4821,
      "per": 4822,
      "pre": 4823,
      "q_": 4824,
      "re": 4825,
      "rỗ": 4826,
      "rung": 4827,
      "rắc": 4828,
      "rát": 4829,
      "rôi": 4830,
      "reo": 4831,
      "rách": 4832,
      "rắt": 4833,
      "rỗi": 4834,
      "răn": 4835,
      "ráng": 4836,
      "rơi": 4837,
      "rảnh": 4838,
      "rít": 4839,
      "rưỡi": 4840,
      "rât": 4841,
      "sô": 4842,
      "sa": 4843,
      "sk": 4844,
      "se": 4845,
      "sọ": 4846,
      "sở": 4847,
      "sỉ": 4848,
      "sài": 4849,
      "sáo": 4850,
      "siết": 4851,
      "sương": 4852,
      "sính": 4853,
      "sướng": 4854,
      "sem": 4855,
      "seo": 4856,
      "sàn": 4857,
      "sân": 4858,
      "sea": 4859,
      "ste": 4860,
      "sưu": 4861,
      "spea": 4862,
      "sto": 4863,
      "stu": 4864,
      "srum": 4865,
      "tô": 4866,
      "ti": 4867,
      "tm": 4868,
      "tà": 4869,
      "tê": 4870,
      "ts": 4871,
      "tồ": 4872,
      "tờ": 4873,
      "tớ": 4874,
      "té": 4875,
      "tết": 4876,
      "tung": 4877,
      "tạt": 4878,
      "tao": 4879,
      "tượng": 4880,
      "têu": 4881,
      "tách": 4882,
      "tiễn": 4883,
      "tánh": 4884,
      "tơi": 4885,
      "tea": 4886,
      "tinh_h": 4887,
      "tiê": 4888,
      "tạch": 4889,
      "tiệm": 4890,
      "tit": 4891,
      "tạp": 4892,
      "tim": 4893,
      "un": 4894,
      "uc": 4895,
      "uể": 4896,
      "uống": 4897,
      "use": 4898,
      "uổng": 4899,
      "unit": 4900,
      "vh": 4901,
      "vạ": 4902,
      "vu": 4903,
      "vầ": 4904,
      "vă": 4905,
      "vò": 4906,
      "vã": 4907,
      "vợ": 4908,
      "vừ": 4909,
      "vinh": 4910,
      "vọc": 4911,
      "vất": 4912,
      "vươ": 4913,
      "viến": 4914,
      "viễ": 4915,
      "vùng": 4916,
      "vặt": 4917,
      "vơi": 4918,
      "viền": 4919,
      "vinh_h": 4920,
      "vớt": 4921,
      "vặn": 4922,
      "viển": 4923,
      "vec": 4924,
      "vựa": 4925,
      "vói": 4926,
      "vẹt": 4927,
      "vủi": 4928,
      "vmware": 4929,
      "wh": 4930,
      "wt": 4931,
      "wit": 4932,
      "work": 4933,
      "wre": 4934,
      "word": 4935,
      "xi": 4936,
      "xo": 4937,
      "xáo": 4938,
      "xưa": 4939,
      "xao": 4940,
      "xanh": 4941,
      "xấp": 4942,
      "xúc": 4943,
      "xào": 4944,
      "xắp": 4945,
      "xim": 4946,
      "y_kiến": 4947,
      "zjwz": 4948,
      "zun": 4949,
      "àm": 4950,
      "áo": 4951,
      "ích": 4952,
      "ôi": 4953,
      "ô_nh": 4954,
      "ùn": 4955,
      "ý_định": 4956,
      "ý_muốn": 4957,
      "ăn_th": 4958,
      "đệ": 4959,
      "đạ": 4960,
      "đà": 4961,
      "đễ": 4962,
      "đê": 4963,
      "đĩ": 4964,
      "đò": 4965,
      "đẻ": 4966,
      "đở": 4967,
      "đố": 4968,
      "đè": 4969,
      "đài": 4970,
      "đất": 4971,
      "điểu": 4972,
      "đính": 4973,
      "điệu": 4974,
      "đúc": 4975,
      "đống": 4976,
      "đàn": 4977,
      "đắt": 4978,
      "đằng": 4979,
      "đắng": 4980,
      "đắp": 4981,
      "đoán": 4982,
      "đấu": 4983,
      "đua": 4984,
      "đĩnh": 4985,
      "đốc": 4986,
      "đàu": 4987,
      "đụng": 4988,
      "đbc": 4989,
      "ướ": 4990,
      "ưng": 4991,
      "ướt": 4992,
      "ạ_đáp": 4993,
      "ấn_định": 4994,
      "ấm_": 4995,
      "ẩn": 4996,
      "ậm_": 4997,
      "ắt": 4998,
      "ổ_cứng": 4999
    }
  }
}